<unk>	0
<|endoftext|>	0
<|system|>	0
<|user|>	0
<|assistant|>	0
<|tool|>	0
<|function|>	0
<|sep|>	0
<|reserved_special_00|>	0
<|reserved_special_01|>	0
<|reserved_special_02|>	0
<|reserved_special_03|>	0
<|reserved_special_04|>	0
<|reserved_special_05|>	0
<|reserved_special_06|>	0
<|reserved_special_07|>	0
<|reserved_special_08|>	0
<|reserved_special_09|>	0
<|reserved_special_10|>	0
<|reserved_special_11|>	0
<|reserved_special_12|>	0
<|reserved_special_13|>	0
<|reserved_special_14|>	0
<|reserved_special_15|>	0
<|reserved_special_16|>	0
<|reserved_special_17|>	0
<|reserved_special_18|>	0
<|reserved_special_19|>	0
<|reserved_special_20|>	0
<|reserved_special_21|>	0
<|reserved_special_22|>	0
<|reserved_special_23|>	0
<|reserved_special_24|>	0
<|reserved_special_25|>	0
<|reserved_special_26|>	0
<|reserved_special_27|>	0
<|reserved_special_28|>	0
<|reserved_special_29|>	0
<|reserved_special_30|>	0
<|reserved_special_31|>	0
<|pad|>	0
<|bos|>	0
<|eos|>	0
<|newline|>	0
<|tab|>	0
<|indent_1|>	0
<|indent_2|>	0
<|indent_3|>	0
<|indent_4|>	0
<|indent_5|>	0
<|indent_6|>	0
<|indent_7|>	0
<|indent_8|>	0
<0x00>	0
<0x01>	0
<0x02>	0
<0x03>	0
<0x04>	0
<0x05>	0
<0x06>	0
<0x07>	0
<0x08>	0
<0x09>	0
<0x0A>	0
<0x0B>	0
<0x0C>	0
<0x0D>	0
<0x0E>	0
<0x0F>	0
<0x10>	0
<0x11>	0
<0x12>	0
<0x13>	0
<0x14>	0
<0x15>	0
<0x16>	0
<0x17>	0
<0x18>	0
<0x19>	0
<0x1A>	0
<0x1B>	0
<0x1C>	0
<0x1D>	0
<0x1E>	0
<0x1F>	0
<0x20>	0
<0x21>	0
<0x22>	0
<0x23>	0
<0x24>	0
<0x25>	0
<0x26>	0
<0x27>	0
<0x28>	0
<0x29>	0
<0x2A>	0
<0x2B>	0
<0x2C>	0
<0x2D>	0
<0x2E>	0
<0x2F>	0
<0x30>	0
<0x31>	0
<0x32>	0
<0x33>	0
<0x34>	0
<0x35>	0
<0x36>	0
<0x37>	0
<0x38>	0
<0x39>	0
<0x3A>	0
<0x3B>	0
<0x3C>	0
<0x3D>	0
<0x3E>	0
<0x3F>	0
<0x40>	0
<0x41>	0
<0x42>	0
<0x43>	0
<0x44>	0
<0x45>	0
<0x46>	0
<0x47>	0
<0x48>	0
<0x49>	0
<0x4A>	0
<0x4B>	0
<0x4C>	0
<0x4D>	0
<0x4E>	0
<0x4F>	0
<0x50>	0
<0x51>	0
<0x52>	0
<0x53>	0
<0x54>	0
<0x55>	0
<0x56>	0
<0x57>	0
<0x58>	0
<0x59>	0
<0x5A>	0
<0x5B>	0
<0x5C>	0
<0x5D>	0
<0x5E>	0
<0x5F>	0
<0x60>	0
<0x61>	0
<0x62>	0
<0x63>	0
<0x64>	0
<0x65>	0
<0x66>	0
<0x67>	0
<0x68>	0
<0x69>	0
<0x6A>	0
<0x6B>	0
<0x6C>	0
<0x6D>	0
<0x6E>	0
<0x6F>	0
<0x70>	0
<0x71>	0
<0x72>	0
<0x73>	0
<0x74>	0
<0x75>	0
<0x76>	0
<0x77>	0
<0x78>	0
<0x79>	0
<0x7A>	0
<0x7B>	0
<0x7C>	0
<0x7D>	0
<0x7E>	0
<0x7F>	0
<0x80>	0
<0x81>	0
<0x82>	0
<0x83>	0
<0x84>	0
<0x85>	0
<0x86>	0
<0x87>	0
<0x88>	0
<0x89>	0
<0x8A>	0
<0x8B>	0
<0x8C>	0
<0x8D>	0
<0x8E>	0
<0x8F>	0
<0x90>	0
<0x91>	0
<0x92>	0
<0x93>	0
<0x94>	0
<0x95>	0
<0x96>	0
<0x97>	0
<0x98>	0
<0x99>	0
<0x9A>	0
<0x9B>	0
<0x9C>	0
<0x9D>	0
<0x9E>	0
<0x9F>	0
<0xA0>	0
<0xA1>	0
<0xA2>	0
<0xA3>	0
<0xA4>	0
<0xA5>	0
<0xA6>	0
<0xA7>	0
<0xA8>	0
<0xA9>	0
<0xAA>	0
<0xAB>	0
<0xAC>	0
<0xAD>	0
<0xAE>	0
<0xAF>	0
<0xB0>	0
<0xB1>	0
<0xB2>	0
<0xB3>	0
<0xB4>	0
<0xB5>	0
<0xB6>	0
<0xB7>	0
<0xB8>	0
<0xB9>	0
<0xBA>	0
<0xBB>	0
<0xBC>	0
<0xBD>	0
<0xBE>	0
<0xBF>	0
<0xC0>	0
<0xC1>	0
<0xC2>	0
<0xC3>	0
<0xC4>	0
<0xC5>	0
<0xC6>	0
<0xC7>	0
<0xC8>	0
<0xC9>	0
<0xCA>	0
<0xCB>	0
<0xCC>	0
<0xCD>	0
<0xCE>	0
<0xCF>	0
<0xD0>	0
<0xD1>	0
<0xD2>	0
<0xD3>	0
<0xD4>	0
<0xD5>	0
<0xD6>	0
<0xD7>	0
<0xD8>	0
<0xD9>	0
<0xDA>	0
<0xDB>	0
<0xDC>	0
<0xDD>	0
<0xDE>	0
<0xDF>	0
<0xE0>	0
<0xE1>	0
<0xE2>	0
<0xE3>	0
<0xE4>	0
<0xE5>	0
<0xE6>	0
<0xE7>	0
<0xE8>	0
<0xE9>	0
<0xEA>	0
<0xEB>	0
<0xEC>	0
<0xED>	0
<0xEE>	0
<0xEF>	0
<0xF0>	0
<0xF1>	0
<0xF2>	0
<0xF3>	0
<0xF4>	0
<0xF5>	0
<0xF6>	0
<0xF7>	0
<0xF8>	0
<0xF9>	0
<0xFA>	0
<0xFB>	0
<0xFC>	0
<0xFD>	0
<0xFE>	0
<0xFF>	0
��	-0
���	-1
����	-2
�����	-3
������	-4
�x	-5
0�	-6
�	-7
`�	-8
1�	-9
c�	-10
t�	-11
�	-12
;�	-13
9�	-14
o�	-15
�	-16
�	-17
7�	-18
�	-19
L�	-20
<�	-21
X�	-22
a�	-23
�	-24
�	-25
F�	-26
�	-27
^�	-28
�	-29
:�	-30
)�	-31
(�	-32
�	-33
&�	-34
�	-35
,�	-36
w�	-37
�	-38
/�	-39
8�	-40
S�	-41
�	-42
�	-43
G�	-44
'�	-45
{�	-46
b�	-47
|�	-48
g�	-49
=�	-50
h�	-51
.�	-52
Z�	-53
�	-54
E�	-55
k�	-56
�	-57
6�	-58
�	-59
*�	-60
z�	-61
5�	-62
Q�	-63
[�	-64
]�	-65
O�	-66
N�	-67
J�	-68
%�	-69
U�	-70
4�	-71
r�	-72
R�	-73
-�	-74
s�	-75
2�	-76
�	-77
�	-78
K�	-79
�	-80
v�	-81
?�	-82
�	-83
3�	-84
>�	-85
T�	-86
W�	-87
V�	-88
q�	-89
\�	-90
M�	-91
l�	-92
#�	-93
e�	-94
Y�	-95
_�	-96
+�	-97
�	-98
�	-99
j�	-100
y�	-101
~�	-102
f�	-103
C�	-104
�	-105
�	-106
P�	-107
d�	-108
m�	-109
n�	-110
@�	-111
�	-112
I�	-113
}�	-114
$�	-115
u�	-116
D�	-117
"�	-118
A�	-119
p�	-120
�	-121
i�	-122
▁�	-123
�	-124
H�	-125
B�	-126
�	-127
�	-128
!�	-129
�������	-130
x�	-131
{��	-132
o��	-133
0��	-134
��	-135
w��	-136
;��	-137
^��	-138
t��	-139
`��	-140
/��	-141
7��	-142
g��	-143
��	-144
h��	-145
��	-146
?��	-147
��	-148
��	-149
v��	-150
��	-151
��	-152
��	-153
:��	-154
��	-155
z��	-156
|��	-157
c��	-158
k��	-159
N��	-160
��	-161
1��	-162
_��	-163
��	-164
��	-165
��	-166
9��	-167
[��	-168
G��	-169
<��	-170
F��	-171
8��	-172
��	-173
]��	-174
L��	-175
~��	-176
a��	-177
��	-178
4��	-179
O��	-180
Z��	-181
l��	-182
&��	-183
.��	-184
'��	-185
s��	-186
b��	-187
5��	-188
=��	-189
r��	-190
X��	-191
f��	-192
W��	-193
n��	-194
,��	-195
J��	-196
��	-197
3��	-198
y��	-199
-��	-200
j��	-201
>��	-202
S��	-203
6��	-204
m��	-205
q��	-206
E��	-207
��	-208
M��	-209
K��	-210
}��	-211
��	-212
��	-213
V��	-214
%��	-215
��	-216
Y��	-217
e��	-218
)��	-219
\��	-220
@��	-221
U��	-222
��	-223
(��	-224
+��	-225
A��	-226
u��	-227
��	-228
Q��	-229
��	-230
d��	-231
*��	-232
i��	-233
��	-234
��	-235
C��	-236
2��	-237
#��	-238
I��	-239
p��	-240
R��	-241
��	-242
T��	-243
P��	-244
D��	-245
��	-246
$��	-247
"��	-248
��	-249
▁��	-250
H��	-251
��	-252
B��	-253
��	-254
��������	-255
!��	-256
x��	-257
�x�	-258
{���	-259
o���	-260
���	-261
~���	-262
?���	-263
;���	-264
|���	-265
g���	-266
w���	-267
z���	-268
t���	-269
���	-270
���	-271
^���	-272
/���	-273
v���	-274
7���	-275
O���	-276
���	-277
���	-278
_���	-279
0���	-280
���	-281
���	-282
k���	-283
���	-284
:���	-285
`���	-286
���	-287
h���	-288
}���	-289
9���	-290
=���	-291
���	-292
<���	-293
1���	-294
c���	-295
F���	-296
]���	-297
���	-298
N���	-299
a���	-300
G���	-301
'���	-302
&���	-303
y���	-304
���	-305
���	-306
l���	-307
L���	-308
6���	-309
Z���	-310
s���	-311
���	-312
m���	-313
r���	-314
8���	-315
>���	-316
q���	-317
[���	-318
W���	-319
3���	-320
n���	-321
���	-322
f���	-323
u���	-324
.���	-325
���	-326
���	-327
S���	-328
���	-329
X���	-330
K���	-331
V���	-332
���	-333
,���	-334
4���	-335
E���	-336
���	-337
j���	-338
���	-339
5���	-340
���	-341
U���	-342
+���	-343
@���	-344
)���	-345
d���	-346
M���	-347
���	-348
-���	-349
J���	-350
b���	-351
(���	-352
���	-353
e���	-354
%���	-355
\���	-356
p���	-357
Y���	-358
Q���	-359
���	-360
R���	-361
#���	-362
���	-363
C���	-364
i���	-365
I���	-366
2���	-367
P���	-368
*���	-369
A���	-370
$���	-371
���	-372
T���	-373
���	-374
H���	-375
D���	-376
"���	-377
▁���	-378
B���	-379
���	-380
���	-381
!���	-382
���������	-383
x���	-384
�x��	-385
����	-386
{����	-387
o����	-388
|����	-389
~����	-390
;����	-391
?����	-392
g����	-393
w����	-394
z����	-395
����	-396
}����	-397
v����	-398
����	-399
����	-400
/����	-401
_����	-402
����	-403
t����	-404
^����	-405
7����	-406
:����	-407
y����	-408
����	-409
>����	-410
����	-411
O����	-412
G����	-413
s����	-414
W����	-415
����	-416
c����	-417
`����	-418
����	-419
����	-420
N����	-421
k����	-422
'����	-423
����	-424
=����	-425
<����	-426
q����	-427
����	-428
n����	-429
0����	-430
[����	-431
F����	-432
l����	-433
]����	-434
h����	-435
6����	-436
9����	-437
����	-438
r����	-439
u����	-440
m����	-441
1����	-442
a����	-443
8����	-444
Z����	-445
3����	-446
����	-447
����	-448
M����	-449
S����	-450
����	-451
5����	-452
f����	-453
.����	-454
����	-455
-����	-456
����	-457
j����	-458
+����	-459
V����	-460
\����	-461
%����	-462
4����	-463
b����	-464
&����	-465
K����	-466
����	-467
U����	-468
C����	-469
Q����	-470
e����	-471
����	-472
L����	-473
����	-474
����	-475
@����	-476
p����	-477
E����	-478
J����	-479
d����	-480
#����	-481
����	-482
����	-483
(����	-484
)����	-485
X����	-486
*����	-487
i����	-488
R����	-489
A����	-490
����	-491
,����	-492
2����	-493
����	-494
Y����	-495
T����	-496
I����	-497
����	-498
����	-499
H����	-500
P����	-501
"����	-502
▁����	-503
D����	-504
$����	-505
B����	-506
����	-507
����	-508
!����	-509
x����	-510
�x���	-511
�[	-512
�;	-513
�7	-514
�	-515
�`	-516
�	-517
�l	-518
�t	-519
�	-520
�a	-521
�b	-522
�9	-523
�)	-524
�%	-525
�|	-526
�.	-527
�	-528
�8	-529
�S	-530
�0	-531
�V	-532
�/	-533
�W	-534
�N	-535
�	-536
�=	-537
�&	-538
�*	-539
�M	-540
�R	-541
�Z	-542
�h	-543
�	-544
�1	-545
�^	-546
�	-547
�	-548
�j	-549
�X	-550
�	-551
�,	-552
�]	-553
�	-554
�Q	-555
�	-556
�	-557
�w	-558
�K	-559
�r	-560
�c	-561
�p	-562
�k	-563
�F	-564
�	-565
�'	-566
�E	-567
�	-568
�s	-569
�	-570
�(	-571
�	-572
�	-573
�5	-574
�G	-575
�e	-576
�3	-577
�O	-578
�	-579
�n	-580
�+	-581
�m	-582
�$	-583
�i	-584
�<	-585
�A	-586
�o	-587
�	-588
�T	-589
�	-590
�{	-591
�v	-592
�g	-593
�d	-594
�\	-595
�:	-596
�	-597
�	-598
�	-599
�q	-600
�	-601
�-	-602
�	-603
�U	-604
�Y	-605
�L	-606
�2	-607
�J	-608
�P	-609
�C	-610
�f	-611
�"	-612
�I	-613
�	-614
�z	-615
�#	-616
�D	-617
�6	-618
�>	-619
�@	-620
�_	-621
�	-622
�B	-623
�?	-624
�y	-625
�u	-626
�H	-627
�	-628
�}	-629
�4	-630
�!	-631
�~	-632
�	-633
�	-634
�����	-635
{�����	-636
~�����	-637
o�����	-638
|�����	-639
z�����	-640
?�����	-641
w�����	-642
_�����	-643
}�����	-644
g�����	-645
�����	-646
v�����	-647
;�����	-648
/�����	-649
�����	-650
�����	-651
^�����	-652
t�����	-653
G�����	-654
7�����	-655
y�����	-656
�����	-657
O�����	-658
k�����	-659
s�����	-660
]�����	-661
�����	-662
0�����	-663
W�����	-664
h�����	-665
<�����	-666
[�����	-667
�����	-668
:�����	-669
m�����	-670
�����	-671
=�����	-672
c�����	-673
u�����	-674
�����	-675
'�����	-676
a�����	-677
9�����	-678
>�����	-679
�����	-680
N�����	-681
l�����	-682
5�����	-683
p�����	-684
`�����	-685
q�����	-686
n�����	-687
�����	-688
M�����	-689
r�����	-690
�����	-691
6�����	-692
�����	-693
8�����	-694
e�����	-695
j�����	-696
.�����	-697
�����	-698
1�����	-699
K�����	-700
�����	-701
U�����	-702
�����	-703
�����	-704
L�����	-705
S�����	-706
Z�����	-707
F�����	-708
f�����	-709
,�����	-710
4�����	-711
+�����	-712
�����	-713
d�����	-714
E�����	-715
I�����	-716
X�����	-717
)�����	-718
Q�����	-719
�����	-720
�����	-721
-�����	-722
Y�����	-723
b�����	-724
(�����	-725
i�����	-726
3�����	-727
\�����	-728
2�����	-729
�����	-730
V�����	-731
#�����	-732
�����	-733
C�����	-734
�����	-735
�����	-736
�����	-737
%�����	-738
&�����	-739
*�����	-740
R�����	-741
�����	-742
D�����	-743
@�����	-744
A�����	-745
x�����	-746
J�����	-747
�����	-748
�����	-749
H�����	-750
T�����	-751
P�����	-752
�����	-753
"�����	-754
▁�����	-755
B�����	-756
$�����	-757
�����	-758
!�����	-759
�0�	-760
��	-761
�`�	-762
�;�	-763
�9�	-764
�)�	-765
�7�	-766
�\�	-767
�x����	-768
�[�	-769
�8�	-770
�,�	-771
�(�	-772
�X�	-773
�1�	-774
��	-775
�S�	-776
�N�	-777
�*�	-778
�c�	-779
�F�	-780
��	-781
�%�	-782
�a�	-783
��	-784
��	-785
��	-786
�w�	-787
��	-788
�b�	-789
��	-790
��	-791
�Z�	-792
�-�	-793
��	-794
�h�	-795
��	-796
�=�	-797
�n�	-798
�D�	-799
�Q�	-800
��x	-801
�s�	-802
�z�	-803
�^�	-804
��	-805
�o�	-806
�R�	-807
�&�	-808
��	-809
�m�	-810
��	-811
�.�	-812
�j�	-813
�E�	-814
��	-815
��	-816
��	-817
�W�	-818
�G�	-819
�f�	-820
�2�	-821
�U�	-822
��`	-823
�:�	-824
�M�	-825
�]�	-826
�|�	-827
�l�	-828
�k�	-829
��	-830
��7	-831
�'�	-832
�3�	-833
��	-834
��	-835
��	-836
�?�	-837
�/�	-838
�A�	-839
��	-840
�t�	-841
�$�	-842
��	-843
�g�	-844
�L�	-845
�5�	-846
�T�	-847
�y�	-848
�p�	-849
��	-850
��	-851
�#�	-852
�4�	-853
�q�	-854
�O�	-855
�<�	-856
�6�	-857
�H�	-858
�I�	-859
�{�	-860
�r�	-861
��	-862
��b	-863
�_�	-864
�J�	-865
�V�	-866
�+�	-867
�"�	-868
�e�	-869
�d�	-870
��	-871
�!�	-872
�K�	-873
�>�	-874
�Y�	-875
�i�	-876
��V	-877
��o	-878
�u�	-879
��Z	-880
�@�	-881
��0	-882
�B�	-883
�C�	-884
��	-885
��h	-886
�}�	-887
��8	-888
��a	-889
��	-890
��s	-891
��	-892
��c	-893
�v�	-894
��[	-895
��v	-896
��1	-897
��	-898
�P�	-899
��	-900
��	-901
��;	-902
��.	-903
��	-904
��	-905
��r	-906
��S	-907
��d	-908
��l	-909
��$	-910
��p	-911
��t	-912
��T	-913
��	-914
��	-915
��m	-916
��9	-917
��F	-918
��	-919
��K	-920
��)	-921
��=	-922
��g	-923
��N	-924
��w	-925
��G	-926
��	-927
��	-928
��R	-929
��	-930
��	-931
��@	-932
��f	-933
�~�	-934
��	-935
��(	-936
��q	-937
��\	-938
��j	-939
��Q	-940
��"	-941
��E	-942
��	-943
��{	-944
��^	-945
��*	-946
��2	-947
��X	-948
��	-949
��,	-950
��	-951
��	-952
��	-953
��	-954
��	-955
��|	-956
��O	-957
��5	-958
��3	-959
��+	-960
��&	-961
��-	-962
��'	-963
��/	-964
��	-965
��<	-966
��e	-967
��u	-968
��	-969
��	-970
��]	-971
��k	-972
��W	-973
��#	-974
��M	-975
��:	-976
��	-977
��J	-978
��	-979
��i	-980
��U	-981
��%	-982
��?	-983
��	-984
��6	-985
��A	-986
��H	-987
��Y	-988
��_	-989
��z	-990
��n	-991
��	-992
��C	-993
��L	-994
��D	-995
��4	-996
��	-997
��!	-998
��}	-999
��y	-1000
��>	-1001
��	-1002
��I	-1003
��P	-1004
��~	-1005
��B	-1006
������	-1007
��	-1008
������������	-1009
{������	-1010
~������	-1011
;;	-1012
w������	-1013
?������	-1014
|������	-1015
}������	-1016
z������	-1017
o������	-1018
WW	-1019
/������	-1020
;������	-1021
_������	-1022
]]	-1023
v������	-1024
7������	-1025
{{	-1026
������	-1027
������	-1028
s������	-1029
O������	-1030
g������	-1031
^������	-1032
y������	-1033
t������	-1034
������	-1035
q������	-1036
vv	-1037
������	-1038
G������	-1039
=������	-1040
������	-1041
u������	-1042
m������	-1043
������	-1044
>������	-1045
]������	-1046
l������	-1047
n������	-1048
k������	-1049
'������	-1050
h������	-1051
<������	-1052
c������	-1053
������	-1054
r������	-1055
0������	-1056
N������	-1057
[������	-1058
:������	-1059
W������	-1060
V������	-1061
6������	-1062
j������	-1063
������	-1064
������	-1065
������	-1066
`������	-1067
f������	-1068
S������	-1069
uu	-1070
������	-1071
Y������	-1072
������	-1073
	-1074
p������	-1075
9������	-1076
8������	-1077
������	-1078
M������	-1079
&������	-1080
-������	-1081
<?	-1082
+������	-1083
\������	-1084
8>	-1085
Q������	-1086
X������	-1087
5������	-1088
a������	-1089
b������	-1090
������	-1091
E������	-1092
<:	-1093
2������	-1094
.������	-1095
������	-1096
������	-1097
F������	-1098
3������	-1099
,������	-1100
1������	-1101
Z������	-1102
8:	-1103
K������	-1104
������	-1105
L������	-1106
ww	-1107
������	-1108
������	-1109
x������	-1110
8=	-1111
d������	-1112
4������	-1113
/	-1114
89	-1115
e������	-1116
%������	-1117
(������	-1118
`0	-1119
������	-1120
[[	-1121
gg	-1122
@������	-1123
▁������	-1124
������	-1125
wv	-1126
<;	-1127
������	-1128
������	-1129
i������	-1130
U������	-1131
oo	-1132
/_	-1133
������	-1134
*������	-1135
/^	-1136
I������	-1137
������	-1138
9:	-1139
P������	-1140
	-1141
C������	-1142
������	-1143
A������	-1144
������	-1145
77	-1146
)������	-1147
>:	-1148
}k	-1149
8;	-1150
J������	-1151
mm	-1152
<<	-1153
#������	-1154
�w��	-1155
nn	-1156
'g	-1157
������	-1158
D������	-1159
O	-1160
|{	-1161
	-1162
NN	-1163
~	-1164
8<	-1165
�;��	-1166
R������	-1167
}{	-1168
H������	-1169
=:	-1170
��x�	-1171
kk	-1172
	-1173
9>	-1174
"������	-1175
o	-1176
T������	-1177
|s	-1178
�0��	-1179
oO	-1180
}s	-1181
�^��	-1182
$������	-1183
B������	-1184
	-1185
!������	-1186
=<	-1187
��1�	-1188
������	-1189
G'	-1190
��7�	-1191
	-1192
sg	-1193
�n��	-1194
��w�	-1195
??	-1196
��8�	-1197
��F�	-1198
���	-1199
{x	-1200
�5��	-1201
���	-1202
G	-1203
��+�	-1204
9<	-1205
=;	-1206
���	-1207
9;	-1208
�G��	-1209
�o��	-1210
���	-1211
..	-1212
lo	-1213
?	-1214
���	-1215
	-1216
Gg	-1217
���	-1218
���	-1219
��(�	-1220
���	-1221
�7��	-1222
pr	-1223
�\��	-1224
|r	-1225
�Y��	-1226
�Z��	-1227
��0�	-1228
�`��	-1229
wx	-1230
}o	-1231
���	-1232
���	-1233
��/�	-1234
wg	-1235
�[��	-1236
O	-1237
qt	-1238
�L��	-1239
�z��	-1240
	-1241
qx	-1242
:	-1243
�N��	-1244
��^�	-1245
	-1246
F#	-1247
�8��	-1248
�:��	-1249
��'�	-1250
��.�	-1251
o	-1252
/	-1253
lm	-1254
�]��	-1255
�h��	-1256
4	-1257
~<	-1258
�m��	-1259
�/��	-1260
Cg	-1261
��Q�	-1262
N	-1263
&^	-1264
���	-1265
�l��	-1266
��o�	-1267
9=	-1268
�k��	-1269
o	-1270
`:	-1271
zx	-1272
�9��	-1273
�b��	-1274
��L�	-1275
��Z�	-1276
��b�	-1277
	-1278
8t	-1279
qr	-1280
o	-1281
^	-1282
;	-1283
|t	-1284
��h�	-1285
	-1286
�%��	-1287
���	-1288
��:�	-1289
��V�	-1290
�y��	-1291
��[�	-1292
L<	-1293
��a�	-1294
��n�	-1295
#g	-1296
��R�	-1297
//	-1298
wt	-1299
��r�	-1300
|x	-1301
�a��	-1302
���	-1303
�A��	-1304
76	-1305
|o	-1306
���	-1307
8?	-1308
���	-1309
��t�	-1310
pz	-1311
���	-1312
���	-1313
��z�	-1314
.f	-1315
L	-1316
��O�	-1317
��S�	-1318
��W�	-1319
c	-1320
vx	-1321
cg	-1322
�1��	-1323
�U��	-1324
�r��	-1325
Co	-1326
���	-1327
�)��	-1328
�<��	-1329
}	-1330
�|��	-1331
��_�	-1332
st	-1333
�d��	-1334
�g��	-1335
�{��	-1336
���	-1337
{g	-1338
��,�	-1339
�O��	-1340
�=��	-1341
�D��	-1342
�t��	-1343
��$�	-1344
��9�	-1345
��;�	-1346
nm	-1347
���	-1348
��=�	-1349
��l�	-1350
N	-1351
Go	-1352
nl	-1353
wo	-1354
��5�	-1355
��6�	-1356
��m�	-1357
&	-1358
<	-1359
���	-1360
��c�	-1361
q0	-1362
���	-1363
?>	-1364
�Q��	-1365
.^	-1366
�e��	-1367
��d�	-1368
^	-1369
�X��	-1370
�i��	-1371
���	-1372
���	-1373
=>	-1374
so	-1375
��k�	-1376
;<	-1377
��2�	-1378
��j�	-1379
o	-1380
`<	-1381
��g�	-1382
���	-1383
���	-1384
k	-1385
cb	-1386
sk	-1387
v0	-1388
|k	-1389
~x	-1390
�,��	-1391
���	-1392
��-�	-1393
?:	-1394
qp	-1395
w0	-1396
|	-1397
���	-1398
�2��	-1399
��"�	-1400
���	-1401
�>��	-1402
�I��	-1403
^	-1404
��{�	-1405
���	-1406
�&��	-1407
��%�	-1408
��E�	-1409
L	-1410
	-1411
Ck	-1412
a	-1413
�W��	-1414
���	-1415
���	-1416
��)�	-1417
g	-1418
�-��	-1419
���	-1420
��`�	-1421
0	-1422
�3��	-1423
�s��	-1424
��s�	-1425
{	-1426
3	-1427
tx	-1428
}w	-1429
���	-1430
S	-1431
;:	-1432
{	-1433
vz	-1434
�j��	-1435
�}��	-1436
��3�	-1437
�v��	-1438
��K�	-1439
�.��	-1440
���	-1441
���x	-1442
	-1443
O	-1444
70	-1445
�F��	-1446
��@�	-1447
��N�	-1448
��u�	-1449
N0	-1450
no	-1451
cc	-1452
dd	-1453
~0	-1454
���	-1455
=q	-1456
���	-1457
�@��	-1458
6	-1459
={	-1460
	-1461
3L	-1462
`b	-1463
��M�	-1464
��?�	-1465
���	-1466
��X�	-1467
g	-1468
�f��	-1469
8	-1470
h4	-1471
�M��	-1472
67	-1473
SL	-1474
c<	-1475
�(��	-1476
�6��	-1477
?<	-1478
]q	-1479
|w	-1480
���	-1481
��>�	-1482
��U�	-1483
]\	-1484
ys	-1485
��p�	-1486
yr	-1487
�'��	-1488
w	-1489
#	-1490
;t	-1491
��B�	-1492
��\�	-1493
{	-1494
^	-1495
X	-1496
�#��	-1497
�H��	-1498
���	-1499
X	-1500
]g	-1501
�K��	-1502
�c��	-1503
��*�	-1504
o	-1505
}q	-1506
���	-1507
���	-1508
��G�	-1509
Z	-1510
�?��	-1511
L	-1512
\g	-1513
cL	-1514
OO	-1515
c{	-1516
o	-1517
���	-1518
;>	-1519
���	-1520
��I�	-1521
�4��	-1522
o	-1523
##	-1524
Q0	-1525
`2	-1526
m<	-1527
��&�	-1528
��Y�	-1529
��f�	-1530
��v�	-1531
/	-1532
SP	-1533
���	-1534
��e�	-1535
,	-1536
X	-1537
;x	-1538
uq	-1539
���	-1540
��#�	-1541
��T�	-1542
&&	-1543
�*��	-1544
���	-1545
��i�	-1546
k	-1547
61	-1548
	-1549
	-1550
x	-1551
|z	-1552
~8	-1553
��q�	-1554
'o	-1555
0	-1556
>	-1557
�_��	-1558
��]�	-1559
	-1560
	-1561
7	-1562
�+��	-1563
�T��	-1564
x	-1565
M<	-1566
N	-1567
[x	-1568
^	-1569
	-1570
}g	-1571
#w	-1572
./	-1573
NO	-1574
l<	-1575
�$��	-1576
�S��	-1577
���	-1578
'G	-1579
`>	-1580
k4	-1581
vr	-1582
~:	-1583
7	-1584
l4	-1585
���	-1586
S	-1587
s	-1588
yx	-1589
�u��	-1590
,	-1591
X	-1592
Mq	-1593
/	-1594
6	-1595
|<	-1596
'	-1597
{s	-1598
|8	-1599
t0	-1600
���	-1601
,	-1602
c	-1603
vt	-1604
L	-1605
&	-1606
��~�	-1607
`	-1608
)^	-1609
]	-1610
L	-1611
�C��	-1612
6^	-1613
=k	-1614
[k	-1615
pt	-1616
qo	-1617
��A�	-1618
-g	-1619
=L	-1620
c8	-1621
�E��	-1622
�p��	-1623
���	-1624
	-1625
	-1626
L	-1627
a0	-1628
{t	-1629
���	-1630
��4�	-1631
��D�	-1632
x	-1633
&	-1634
s	-1635
Cw	-1636
O0	-1637
|~	-1638
��|�	-1639
	-1640
�!��	-1641
���	-1642
s	-1643
	-1644
21	-1645
3w	-1646
]L	-1647
ad	-1648
co	-1649
S	-1650
	-1651
p0	-1652
}x	-1653
%^	-1654
,g	-1655
=w	-1656
>	-1657
���	-1658
/	-1659
_~	-1660
t1	-1661
���	-1662
fS	-1663
�B��	-1664
Na	-1665
mw	-1666
��P�	-1667
X	-1668
0	-1669
3	-1670
	-1671
	-1672
]^	-1673
px	-1674
�J��	-1675
��C�	-1676
��J�	-1677
ML	-1678
c`	-1679
�V��	-1680
%F	-1681
C{	-1682
���	-1683
o	-1684
.&	-1685
9	-1686
]o	-1687
cJ	-1688
#o	-1689
=	-1690
sq	-1691
�"��	-1692
��H�	-1693
#{	-1694
(^	-1695
66	-1696
1	-1697
ab	-1698
cX	-1699
y~	-1700
,	-1701
z	-1702
S	-1703
{	-1704
?9	-1705
V0	-1706
vw	-1707
yw	-1708
|g	-1709
L	-1710
1q	-1711
pm	-1712
}<	-1713
�R��	-1714
	-1715
/	-1716
	-1717
:	-1718
o	-1719
AW	-1720
x	-1721
	-1722
.,	-1723
3q	-1724
]<	-1725
lk	-1726
|:	-1727
&	-1728
9t	-1729
rt	-1730
g	-1731
X	-1732
;{	-1733
FS	-1734
O	-1735
Y	-1736
\\	-1737
+	-1738
N	-1739
q	-1740
3o	-1741
O	-1742
Zx	-1743
zt	-1744
�x�����	-1745
	-1746
cs	-1747
�~��	-1748
O	-1749
#L	-1750
/0	-1751
;=	-1752
_	-1753
���	-1754
f	-1755
11	-1756
3s	-1757
QR	-1758
�P��	-1759
��y�	-1760
a	-1761
3g	-1762
5	-1763
F	-1764
99	-1765
p|	-1766
^	-1767
5q	-1768
Xx	-1769
Zb	-1770
s	-1771
/	-1772
lw	-1773
.0	-1774
?~	-1775
�q��	-1776
{	-1777
L	-1778
x	-1779
:	-1780
'	-1781
*^	-1782
10	-1783
rx	-1784
���	-1785
g	-1786
8x	-1787
?=	-1788
(	-1789
]	-1790
o	-1791
	-1792
/	-1793
+	-1794
ck	-1795
p~	-1796
F	-1797
o	-1798
!^	-1799
-<	-1800
GG	-1801
\`	-1802
&	-1803
	-1804
1	-1805
22	-1806
M,	-1807
hd	-1808
ug	-1809
z}	-1810
���	-1811
	-1812
S	-1813
1^	-1814
>9	-1815
ll	-1816
s<	-1817
	-1818
k	-1819
%	-1820
	-1821
\L	-1822
cx	-1823
m4	-1824
rg	-1825
���7	-1826
���t	-1827
-q	-1828
e`	-1829
}4	-1830
F	-1831
.:	-1832
^	-1833
a4	-1834
e9	-1835
M	-1836
]	-1837
mo	-1838
{k	-1839
l	-1840
x	-1841
O	-1842
;9	-1843
bb	-1844
<	-1845
.%	-1846
_^	-1847
n`	-1848
&	-1849
'^	-1850
7t	-1851
N`	-1852
PR	-1853
V	-1854
^	-1855
X	-1856
c:	-1857
^	-1858
=	-1859
Gx	-1860
M1	-1861
p<	-1862
o	-1863
k	-1864
2	-1865
20	-1866
5	-1867
60	-1868
mq	-1869
n4	-1870
zs	-1871
t	-1872
g	-1873
Vk	-1874
a`	-1875
mL	-1876
X	-1877
t	-1878
M\	-1879
NA	-1880
T*	-1881
S	-1882
t	-1883
L	-1884
_	-1885
L	-1886
'	-1887
	-1888
?t	-1889
KL	-1890
TI	-1891
k	-1892
t	-1893
3t	-1894
,	-1895
`	-1896
/	-1897
30	-1898
���v	-1899
f	-1900
:	-1901
)R	-1902
G#	-1903
i4	-1904
��}�	-1905
t	-1906
6E	-1907
M&	-1908
ur	-1909
zC	-1910
zy	-1911
}t	-1912
9	-1913
?	-1914
u0	-1915
���	-1916
P	-1917
X	-1918
/	-1919
t	-1920
)E	-1921
><	-1922
Ur	-1923
|y	-1924
	-1925
[	-1926
$A	-1927
-t	-1928
K<	-1929
zS	-1930
��<�	-1931
JI	-1932
TY	-1933
c4	-1934
:	-1935
[	-1936
],	-1937
{w	-1938
y	-1939
_	-1940
,	-1941
-L	-1942
.1	-1943
fx	-1944
|q	-1945
:	-1946
`	-1947
F	-1948
C<	-1949
cw	-1950
L	-1951
l`	-1952
���^	-1953
g	-1954
s	-1955
^	-1956
1	-1957
Z	-1958
aj	-1959
f	-1960
O	-1961
),	-1962
+o	-1963
Sk	-1964
f`	-1965
v`	-1966
;	-1967
,	-1968
=s	-1969
Y0	-1970
\t	-1971
c	-1972
n0	-1973
^	-1974
''	-1975
CL	-1976
P	-1977
l	-1978
(	-1979
_	-1980
X	-1981
Q`	-1982
n-	-1983
vk	-1984
s	-1985
0	-1986
F	-1987
w	-1988
	-1989
[X	-1990
N.	-1991
Q8	-1992
h>	-1993
~`	-1994
0	-1995
g	-1996
#	-1997
^	-1998
=X	-1999
f0	-2000
��!�	-2001
P	-2002
N1	-2003
r0	-2004
Y	-2005
-^	-2006
7^	-2007
G{	-2008
bj	-2009
ct	-2010
v1	-2011
@	-2012
ON	-2013
cl	-2014
h	-2015
n,	-2016
'W	-2017
G	-2018
Mt	-2019
U	-2020
n<	-2021
vq	-2022
���W	-2023
50	-2024
:>	-2025
&	-2026
	-2027
o	-2028
S	-2029
	-2030
.(	-2031
?	-2032
EW	-2033
Yx	-2034
c	-2035
db	-2036
▁%	-2037
	-2038
	-2039
k	-2040
5,	-2041
C	-2042
]t	-2043
a<	-2044
S	-2045
;	-2046
+X	-2047
_	-2048
���	-2049
`	-2050
@W	-2051
G	-2052
N&	-2053
Ut	-2054
[\	-2055
u1	-2056
	-2057
S	-2058
/	-2059
TV	-2060
[,	-2061
[L	-2062
[{	-2063
lL	-2064
���*	-2065
,	-2066
^	-2067
&	-2068
	-2069
.	-2070
Ng	-2071
]X	-2072
ex	-2073
w<	-2074
+	-2075
F	-2076
	-2077
%%	-2078
)K	-2079
=9	-2080
CW	-2081
~p	-2082
/	-2083
P	-2084
`	-2085
Q	-2086
Qx	-2087
R*	-2088
b	-2089
ch	-2090
|	-2091
)0	-2092
5	-2093
d	-2094
.F	-2095
6F	-2096
\^	-2097
mv	-2098
y0	-2099
���	-2100
^	-2101
#k	-2102
3v	-2103
Eg	-2104
	-2105
	-2106
{	-2107
-	-2108
Q4	-2109
lb	-2110
���	-2111
J	-2112
P	-2113
M	-2114
31	-2115
Uj	-2116
[g	-2117
���,	-2118
:	-2119
O	-2120
	-2121
;0	-2122
Bg	-2123
C'	-2124
a	-2125
m	-2126
F	-2127
L	-2128
	-2129
;	-2130
}8	-2131
���w	-2132
`	-2133
W	-2134
9	-2135
K	-2136
-f	-2137
C+	-2138
Qr	-2139
a	-2140
mu	-2141
���s	-2142
S	-2143
#X	-2144
$J	-2145
@K	-2146
QJ	-2147
YX	-2148
hj	-2149
~	-2150
o	-2151
g	-2152
L	-2153
_	-2154
/	-2155
@)	-2156
B{	-2157
E0	-2158
\k	-2159
ml	-2160
���:	-2161
���k	-2162
z	-2163
{	-2164
%	-2165
1L	-2166
qq	-2167
���r	-2168
H	-2169
(	-2170
o	-2171
:	-2172
]P	-2173
yk	-2174
���`	-2175
K	-2176
$e	-2177
=,	-2178
cj	-2179
sx	-2180
wr	-2181
	-2182
'	-2183
,	-2184
	-2185
.l	-2186
FW	-2187
▁^	-2188
J	-2189
l	-2190
t	-2191
&	-2192
.	-2193
p2	-2194
s8	-2195
ut	-2196
:	-2197
(	-2198
6,	-2199
;?	-2200
RJ	-2201
SX	-2202
Yb	-2203
ah	-2204
}}	-2205
]	-2206
8	-2207
6	-2208
7x	-2209
EK	-2210
[<	-2211
s	-2212
yt	-2213
k	-2214
M0	-2215
Z-	-2216
``	-2217
:	-2218
5^	-2219
71	-2220
9	-2221
C	-2222
a	-2223
aJ	-2224
eS	-2225
ux	-2226
K	-2227
U	-2228
t	-2229
/	-2230
6r	-2231
7	-2232
P(	-2233
\{	-2234
mn	-2235
o<	-2236
	-2237
*	-2238
,	-2239
t	-2240
5t	-2241
=?	-2242
_t	-2243
c/	-2244
uv	-2245
���b	-2246
3,	-2247
;+	-2248
=g	-2249
TL	-2250
i0	-2251
p1	-2252
���F	-2253
#	-2254
'	-2255
X	-2256
)	-2257
)J	-2258
Y8	-2259
mk	-2260
���h	-2261
k	-2262
"g	-2263
)(	-2264
):	-2265
5	-2266
T+	-2267
Vj	-2268
e0	-2269
▁L	-2270
&	-2271
w	-2272
?v	-2273
@I	-2274
V	-2275
a\	-2276
d:	-2277
~h	-2278
/	-2279
/	-2280
L	-2281
t	-2282
Z	-2283
$^	-2284
7r	-2285
>>	-2286
MJ	-2287
]k	-2288
a8	-2289
aR	-2290
cq	-2291
u<	-2292
y}	-2293
	-2294
:	-2295
v	-2296
%'	-2297
*+	-2298
51	-2299
O1	-2300
U4	-2301
Y#	-2302
\	-2303
z0	-2304
:	-2305
6_	-2306
Cq	-2307
Px	-2308
Sr	-2309
[b	-2310
cN	-2311
}	-2312
:	-2313
	-2314
=`	-2315
DW	-2316
S,	-2317
V`	-2318
s`	-2319
y{	-2320
E	-2321
%&	-2322
3{	-2323
52	-2324
a	-2325
:	-2326
'	-2327
	-2328
F	-2329
4q	-2330
Sx	-2331
[t	-2332
]`	-2333
zr	-2334
|	-2335
���g	-2336
	-2337
0	-2338
)&	-2339
)F	-2340
B	-2341
U^	-2342
VW	-2343
\o	-2344
c	-2345
���K	-2346
	-2347
:	-2348
	-2349
Z	-2350
3r	-2351
Bw	-2352
Gt	-2353
_`	-2354
ax	-2355
c0	-2356
ld	-2357
m`	-2358
md	-2359
uo	-2360
vo	-2361
<	-2362
.N	-2363
3<	-2364
Uo	-2365
p,	-2366
sL	-2367
���j	-2368
L	-2369
+	-2370
h	-2371
0	-2372
N	-2373
x	-2374
-:	-2375
9x	-2376
GW	-2377
]v	-2378
���	-2379
���l	-2380
���o	-2381
I	-2382
f	-2383
Z	-2384
	-2385
;	-2386
1F	-2387
MP	-2388
M`	-2389
UR	-2390
\:	-2391
p:	-2392
zq	-2393
���A	-2394
,	-2395
J	-2396
*K	-2397
CK	-2398
T^	-2399
Vx	-2400
aO	-2401
c,	-2402
pq	-2403
���Z	-2404
L	-2405
S	-2406
}	-2407
F	-2408
1,	-2409
3J	-2410
6&	-2411
9^	-2412
>~	-2413
Tj	-2414
X	-2415
o	-2416
$I	-2417
)g	-2418
Qj	-2419
F	-2420
"I	-2421
88	-2422
=o	-2423
b2	-2424
^	-2425
,	-2426
)Z	-2427
-`	-2428
-	-2429
7q	-2430
cP	-2431
|j	-2432
,	-2433
V	-2434
	-2435
`	-2436
L	-2437
o	-2438
Z	-2439
z	-2440
%:	-2441
%{	-2442
'x	-2443
GX	-2444
U0	-2445
Ux	-2446
}v	-2447
~r	-2448
���i	-2449
/	-2450
O	-2451
(+	-2452
1&	-2453
EI	-2454
Mv	-2455
Q,	-2456
T<	-2457
U	-2458
c2	-2459
e:	-2460
h,	-2461
F	-2462
N	-2463
(X	-2464
[o	-2465
aD	-2466
{o	-2467
���H	-2468
w	-2469
f	-2470
*L	-2471
.L	-2472
Gw	-2473
Q<	-2474
|L	-2475
L	-2476
y	-2477
8	-2478
*W	-2479
34	-2480
5r	-2481
=v	-2482
QL	-2483
QZ	-2484
Qy	-2485
\b	-2486
]Y	-2487
e<	-2488
���	-2489
m	-2490
P	-2491
`	-2492
L	-2493
'X	-2494
9&	-2495
90	-2496
Eq	-2497
]_	-2498
h<	-2499
p>	-2500
u`	-2501
|+	-2502
}r	-2503
���$	-2504
,	-2505
5L	-2506
C/	-2507
K,	-2508
Q6	-2509
S	-2510
aL	-2511
c	-2512
���	-2513
I	-2514
t	-2515
T	-2516
#	-2517
	-2518
St	-2519
pF	-2520
|X	-2521
}L	-2522
,	-2523
	-2524
f	-2525
0	-2526
[	-2527
'O	-2528
.Z	-2529
4r	-2530
==	-2531
Q	-2532
Qq	-2533
Vr	-2534
aP	-2535
���d	-2536
^	-2537
	-2538
Z	-2539
+	-2540
>^	-2541
T%	-2542
WX	-2543
b:	-2544
i<	-2545
p`	-2546
/	-2547
L	-2548
)<	-2549
)I	-2550
.O	-2551
3X	-2552
D^	-2553
E2	-2554
G7	-2555
]:	-2556
���1	-2557
	-2558
J	-2559
	-2560
H	-2561
o	-2562
	-2563
(J	-2564
*F	-2565
3k	-2566
4J	-2567
5Z	-2568
9h	-2569
M	-2570
UJ	-2571
ix	-2572
O	-2573
0	-2574
w	-2575
MA	-2576
So	-2577
V	-2578
aI	-2579
cO	-2580
���	-2581
���L	-2582
e	-2583
&	-2584
W	-2585
t	-2586
x	-2587
L	-2588
l	-2589
(0	-2590
-,	-2591
62	-2592
8q	-2593
B/	-2594
\<	-2595
_<	-2596
b<	-2597
|2	-2598
|Y	-2599
Z	-2600
K	-2601
g	-2602
h	-2603
,	-2604
y	-2605
4F	-2606
Ex	-2607
G<	-2608
Mf	-2609
Sg	-2610
bx	-2611
cr	-2612
ht	-2613
n	-2614
J	-2615
F	-2616
	-2617
H	-2618
H	-2619
^	-2620
!&	-2621
+^	-2622
7A	-2623
R2	-2624
TK	-2625
Tk	-2626
nL	-2627
uF	-2628
���0	-2629
���[	-2630
*	-2631
	-2632
f	-2633
]	-2634
	-2635
[	-2636
#s	-2637
3P	-2638
EJ	-2639
GI	-2640
R	-2641
Sw	-2642
aZ	-2643
bd	-2644
���2	-2645
���P	-2646
C	-2647
>	-2648
#	-2649
3^	-2650
R0	-2651
TX	-2652
UY	-2653
Wk	-2654
cz	-2655
���8	-2656
���X	-2657
���f	-2658
,	-2659
X	-2660
Z	-2661
:	-2662
Y	-2663
)e	-2664
7Z	-2665
=r	-2666
Mg	-2667
V[	-2668
���{	-2669
P	-2670
0	-2671
K	-2672
{	-2673
z	-2674
Y	-2675
	-2676
J	-2677
6q	-2678
R+	-2679
\+	-2680
lj	-2681
���%	-2682
P	-2683
Bo	-2684
N/	-2685
QX	-2686
U<	-2687
b8	-2688
bg	-2689
d`	-2690
0	-2691
	-2692
O	-2693
*	-2694
P	-2695
:	-2696
"K	-2697
$0	-2698
%0	-2699
40	-2700
;k	-2701
;o	-2702
@g	-2703
Dg	-2704
G/	-2705
Rr	-2706
���&	-2707
���(	-2708
]	-2709
'	-2710
&	-2711
&	-2712
"	-2713
#'	-2714
)P	-2715
-	-2716
E	-2717
EY	-2718
S<	-2719
T>	-2720
ss	-2721
���O	-2722
l	-2723
+	-2724
t	-2725
#,	-2726
5F	-2727
E<	-2728
TJ	-2729
cY	-2730
h1	-2731
~k	-2732
r	-2733
`	-2734
"!	-2735
"+	-2736
#	-2737
$F	-2738
-v	-2739
.	-2740
=t	-2741
Q	-2742
\X	-2743
eL	-2744
	-2745
Y	-2746
)X	-2747
){	-2748
6Z	-2749
;r	-2750
a	-2751
hO	-2752
q	-2753
	-2754
:	-2755
x	-2756
"^	-2757
#Y	-2758
7o	-2759
;_	-2760
S{	-2761
[	-2762
]x	-2763
ar	-2764
bk	-2765
br	-2766
ez	-2767
|J	-2768
�������	-2769
Z	-2770
	-2771
L	-2772
	-2773
X	-2774
Z	-2775
)L	-2776
*t	-2777
U	-2778
b	-2779
},	-2780
���N	-2781
:	-2782
q	-2783
Y	-2784
I	-2785
)	-2786
)H	-2787
-X	-2788
12	-2789
5v	-2790
QI	-2791
R@	-2792
Sq	-2793
�������������	-2794
	-2795
P	-2796
BW	-2797
T2	-2798
a	-2799
nt	-2800
f	-2801
X	-2802
P	-2803
	-2804
]	-2805
	-2806
/	-2807
k	-2808
x	-2809
*o	-2810
7@	-2811
Er	-2812
KP	-2813
S`	-2814
VX	-2815
i`	-2816
nW	-2817
um	-2818
z{	-2819
▁_	-2820
▁r	-2821
���<	-2822
@	-2823
{	-2824
?	-2825
"'	-2826
(I	-2827
-o	-2828
4L	-2829
7s	-2830
Ml	-2831
h0	-2832
p	-2833
▁I	-2834
▁o	-2835
N	-2836
	-2837
).	-2838
=P	-2839
B	-2840
Ko	-2841
Kt	-2842
TZ	-2843
\[	-2844
at	-2845
h2	-2846
}y	-2847
���+	-2848
X	-2849
<	-2850
	-2851
5J	-2852
;w	-2853
A/	-2854
CX	-2855
Ek	-2856
Et	-2857
G^	-2858
\,	-2859
\Y	-2860
\r	-2861
eN	-2862
j<	-2863
~~	-2864
z	-2865
/	-2866
&	-2867
K	-2868
Q2	-2869
QF	-2870
Qf	-2871
a9	-2872
b	-2873
bX	-2874
cy	-2875
hw	-2876
,	-2877
%	-2878
?	-2879
{	-2880
)n	-2881
5<	-2882
Q(	-2883
UU	-2884
__	-2885
a$	-2886
d1	-2887
lJ	-2888
]	-2889
	-2890
P	-2891
`	-2892
8	-2893
&	-2894
3	-2895
56	-2896
Og	-2897
Vp	-2898
jx	-2899
^	-2900
P	-2901
L	-2902
&	-2903
F	-2904
]	-2905
%	-2906
Kg	-2907
sr	-2908
|	-2909
g	-2910
3`	-2911
UN	-2912
\~	-2913
eF	-2914
uk	-2915
|v	-2916
���/	-2917
t	-2918
%	-2919
z	-2920
4	-2921
<	-2922
=~	-2923
\/	-2924
aN	-2925
l2	-2926
t	-2927
���-	-2928
,	-2929
M	-2930
8	-2931
Ct	-2932
RX	-2933
VY	-2934
h9	-2935
���;	-2936
Z	-2937
O	-2938
`	-2939
	-2940
-	-2941
X	-2942
)f	-2943
)k	-2944
3@	-2945
E:	-2946
SJ	-2947
T,	-2948
[+	-2949
bJ	-2950
pg	-2951
&	-2952
g	-2953
@	-2954
	-2955
,	-2956
N	-2957
#<	-2958
$W	-2959
)%	-2960
1r	-2961
6(	-2962
6L	-2963
Dw	-2964
UL	-2965
d2	-2966
dI	-2967
l_	-2968
s	-2969
<	-2970
Z	-2971
-	-2972
z	-2973
"Z	-2974
6f	-2975
CI	-2976
DI	-2977
Q_	-2978
RF	-2979
bo	-2980
nw	-2981
/	-2982
t	-2983
O	-2984
	-2985
	-2986
"w	-2987
#q	-2988
)_	-2989
1	-2990
3'	-2991
?{	-2992
E	-2993
E!	-2994
K^	-2995
Uq	-2996
c*	-2997
e	-2998
}J	-2999
���.	-3000
M	-3001
J	-3002
q	-3003
	-3004
'	-3005
_	-3006
,	-3007
{	-3008
$H	-3009
=J	-3010
>F	-3011
AI	-3012
RI	-3013
}+	-3014
▁@	-3015
L	-3016
	-3017
F	-3018
&	-3019
#Z	-3020
);	-3021
C	-3022
&	-3023
/	-3024
P	-3025
/	-3026
N	-3027
t	-3028
4Z	-3029
[/	-3030
\P	-3031
a,	-3032
bZ	-3033
uz	-3034
|0	-3035
]	-3036
	-3037
F	-3038
%	-3039
G	-3040
t	-3041
%	-3042
*I	-3043
5(	-3044
5V	-3045
7X	-3046
7v	-3047
Q	-3048
QP	-3049
S	-3050
lg	-3051
p(	-3052
���	-3053
���J	-3054
���m	-3055
(	-3056
t	-3057
:	-3058
+L	-3059
.]	-3060
\q	-3061
eY	-3062
j	-3063
x	-3064
8	-3065
#:	-3066
32	-3067
?|	-3068
Ej	-3069
M-	-3070
Ql	-3071
S:	-3072
\_	-3073
aH	-3074
h	-3075
L	-3076
	-3077
o	-3078
&	-3079
P	-3080
"L	-3081
)9	-3082
1<	-3083
7J	-3084
=y	-3085
W_	-3086
\y	-3087
a:	-3088
aq	-3089
cf	-3090
u,	-3091
uf	-3092
I	-3093
f	-3094
F	-3095
'	-3096
&	-3097
]	-3098
*g	-3099
Rj	-3100
b9	-3101
h6	-3102
hr	-3103
���n	-3104
&	-3105
v	-3106
+	-3107
^	-3108
O	-3109
x	-3110
	-3111
#J	-3112
)	-3113
;s	-3114
Ef	-3115
Q%	-3116
hL	-3117
id	-3118
l	-3119
V	-3120
?	-3121
'	-3122
]	-3123
	-3124
/	-3125
#t	-3126
;X	-3127
C	-3128
W^	-3129
a_	-3130
i,	-3131
pv	-3132
u:	-3133
~y	-3134
s	-3135
9	-3136
%	-3137
	-3138
	-3139
]	-3140
)+	-3141
)U	-3142
1t	-3143
D&	-3144
D+	-3145
E^	-3146
SR	-3147
Tr	-3148
az	-3149
bL	-3150
h:	-3151
pd	-3152
uj	-3153
}:	-3154
}P	-3155
}X	-3156
<	-3157
q	-3158
F	-3159
e	-3160
{	-3161
+	-3162
V	-3163
P	-3164
9	-3165
"%	-3166
)	-3167
)	-3168
1	-3169
>?	-3170
Qt	-3171
TU	-3172
\x	-3173
n]	-3174
▁&	-3175
o	-3176
:	-3177
Z	-3178
j	-3179
4	-3180
k	-3181
	-3182
1	-3183
5w	-3184
���	-3185
~	-3186
e	-3187
'	-3188
^	-3189
:	-3190
)	-3191
.	-3192
Ao	-3193
B<	-3194
O	-3195
T0	-3196
cI	-3197
d	-3198
pJ	-3199
���!	-3200
���@	-3201
	-3202
H	-3203
J	-3204
Z	-3205
Y	-3206
)@	-3207
-J	-3208
5P	-3209
Cx	-3210
Mm	-3211
Mr	-3212
b{	-3213
▁J	-3214
���V	-3215
���_	-3216
]	-3217
0	-3218
V	-3219
.V	-3220
3:	-3221
7g	-3222
8~	-3223
;g	-3224
>	-3225
CJ	-3226
MF	-3227
N<	-3228
Qo	-3229
Ss	-3230
To	-3231
Wx	-3232
a2	-3233
et	-3234
▁s	-3235
2	-3236
J	-3237
m	-3238
K	-3239
)4	-3240
5&	-3241
;q	-3242
T4	-3243
b4	-3244
bI	-3245
bs	-3246
iO	-3247
po	-3248
	-3249
?	-3250
I	-3251
x	-3252
v	-3253
(	-3254
%	-3255
z	-3256
*%	-3257
E+	-3258
[8	-3259
a	-3260
bw	-3261
u~	-3262
}m	-3263
k	-3264
▁t	-3265
%	-3266
R	-3267
X	-3268
f	-3269
	-3270
	-3271
R	-3272
)t	-3273
-9	-3274
-F	-3275
3	-3276
3	-3277
6	-3278
6	-3279
UI	-3280
W<	-3281
���R	-3282
Y	-3283
+	-3284
_	-3285
I	-3286
s	-3287
9	-3288
v	-3289
*H	-3290
5:	-3291
;2	-3292
=	-3293
B	-3294
Mo	-3295
U`	-3296
\J	-3297
a(	-3298
l,	-3299
p&	-3300
|I	-3301
���'	-3302
���y	-3303
w	-3304
x	-3305
1	-3306
K	-3307
`	-3308
+	-3309
+	-3310
R	-3311
,	-3312
^	-3313
`	-3314
"	-3315
*	-3316
*_	-3317
.H	-3318
.g	-3319
5y	-3320
;v	-3321
C7	-3322
G&	-3323
\]	-3324
h_	-3325
h`	-3326
hx	-3327
▁+	-3328
���e	-3329
x	-3330
,	-3331
I	-3332
_	-3333
]	-3334
q	-3335
~	-3336
$	-3337
*,	-3338
-&	-3339
Bk	-3340
Tq	-3341
Wg	-3342
bf	-3343
ij	-3344
ud	-3345
▁K	-3346
���]	-3347
k	-3348
O	-3349
_	-3350
F	-3351
s	-3352
#	-3353
5k	-3354
BL	-3355
CY	-3356
G?	-3357
M@	-3358
aY	-3359
K	-3360
Y	-3361
X	-3362
	-3363
?	-3364
Z	-3365
[	-3366
$x	-3367
(F	-3368
*X	-3369
-0	-3370
CS	-3371
D'	-3372
EA	-3373
EL	-3374
ln	-3375
m,	-3376
▁/	-3377
^	-3378
f	-3379
+	-3380
%	-3381
"k	-3382
(%	-3383
-	-3384
=8	-3385
N	-3386
Uy	-3387
aF	-3388
&	-3389
K	-3390
]	-3391
z	-3392
4	-3393
+	-3394
]	-3395
"Y	-3396
#^	-3397
72	-3398
>&	-3399
DO	-3400
N^	-3401
U	-3402
af	-3403
c	-3404
pH	-3405
|,	-3406
H	-3407
z	-3408
I	-3409
{	-3410
J	-3411
H	-3412
9	-3413
"	-3414
1f	-3415
;,	-3416
>}	-3417
BI	-3418
Bq	-3419
Nf	-3420
No	-3421
Q@	-3422
QA	-3423
Te	-3424
V2	-3425
|4	-3426
%	-3427
S	-3428
!F	-3429
)j	-3430
.<	-3431
.j	-3432
1Z	-3433
Cs	-3434
Ew	-3435
Mk	-3436
UP	-3437
pL	-3438
pk	-3439
u@	-3440
▁	-3441
+	-3442
?	-3443
K	-3444
F	-3445
z	-3446
#/	-3447
)	-3448
*Z	-3449
-s	-3450
5g	-3451
>	-3452
Q:	-3453
Q^	-3454
b0	-3455
▁F	-3456
$	-3457
_	-3458
J	-3459
Z	-3460
K	-3461
d	-3462
1]	-3463
3F	-3464
B	-3465
E	-3466
MI	-3467
U+	-3468
aS	-3469
▁W	-3470
▁Z	-3471
J	-3472
&	-3473
	-3474
9	-3475
t	-3476
y	-3477
k	-3478
!	-3479
B'	-3480
E	-3481
EV	-3482
M4	-3483
R&	-3484
[Z	-3485
iJ	-3486
���I	-3487
	-3488
@	-3489
K	-3490
e	-3491
%	-3492
K	-3493
`	-3494
v	-3495
e	-3496
)q	-3497
.m	-3498
3x	-3499
5@	-3500
N	-3501
ao	-3502
bt	-3503
%	-3504
Y	-3505
_	-3506
w	-3507
)W	-3508
Ag	-3509
TF	-3510
U,	-3511
a%	-3512
a&	-3513
a/	-3514
b`	-3515
c	-3516
lt	-3517
nd	-3518
���	-3519
���q	-3520
%	-3521
F	-3522
	-3523
(t	-3524
5Y	-3525
8%	-3526
8s	-3527
B,	-3528
\4	-3529
by	-3530
c+	-3531
c]	-3532
cd	-3533
i	-3534
pf	-3535
g	-3536
0	-3537
"X	-3538
)2	-3539
)o	-3540
54	-3541
;	-3542
Dk	-3543
U@	-3544
l6	-3545
pP	-3546
uL	-3547
	-3548
k	-3549
F	-3550
]	-3551
%	-3552
+	-3553
X	-3554
$@	-3555
)V	-3556
*r	-3557
Ey	-3558
QH	-3559
T:	-3560
iI	-3561
nx	-3562
���z	-3563
	-3564
	-3565
y	-3566
J	-3567
(	-3568
%	-3569
	-3570
x	-3571
"/	-3572
"A	-3573
*&	-3574
*/	-3575
.k	-3576
3G	-3577
Dy	-3578
Ev	-3579
QY	-3580
R	-3581
RZ	-3582
Wo	-3583
[_	-3584
iw	-3585
l:	-3586
n	-3587
S	-3588
Z	-3589
0	-3590
	-3591
m	-3592
&	-3593
~	-3594
"e	-3595
#K	-3596
*0	-3597
*O	-3598
=^	-3599
A	-3600
Nm	-3601
R,	-3602
T/	-3603
Uv	-3604
\	-3605
a	-3606
aX	-3607
c@	-3608
pj	-3609
	-3610
H	-3611
H	-3612
	-3613
"r	-3614
$Y	-3615
.	-3616
.>	-3617
B+	-3618
E7	-3619
h	-3620
if	-3621
lX	-3622
uy	-3623
���>	-3624
y	-3625
q	-3626
:	-3627
r	-3628
#_	-3629
)	-3630
)y	-3631
.z	-3632
6%	-3633
T[	-3634
UX	-3635
b	-3636
cZ	-3637
uA	-3638
|'	-3639
|/	-3640
▁Y	-3641
g	-3642
x	-3643
e	-3644
g	-3645
<	-3646
w	-3647
#?	-3648
)/	-3649
*s	-3650
.t	-3651
1:	-3652
6V	-3653
=Z	-3654
Q~	-3655
Ue	-3656
bO	-3657
K	-3658
{	-3659
x	-3660
	-3661
$	-3662
/	-3663
#I	-3664
5X	-3665
;L	-3666
E~	-3667
Rg	-3668
TO	-3669
hX	-3670
lf	-3671
|Z	-3672
z	-3673
(	-3674
(	-3675
(	-3676
f	-3677
>	-3678
I	-3679
<	-3680
:	-3681
o	-3682
)1	-3683
-2	-3684
5f	-3685
D!	-3686
Dj	-3687
G	-3688
G0	-3689
R^	-3690
\	-3691
a]	-3692
dg	-3693
u]	-3694
<	-3695
S	-3696
V	-3697
J	-3698
0	-3699
4	-3700
_	-3701
_	-3702
"J	-3703
"y	-3704
#P	-3705
)O	-3706
3/	-3707
=z	-3708
BY	-3709
D/	-3710
E>	-3711
N	-3712
Qn	-3713
Qv	-3714
R	-3715
Rq	-3716
[K	-3717
p8	-3718
u	-3719
(	-3720
(	-3721
H	-3722
J	-3723
"{	-3724
$r	-3725
)~	-3726
*Y	-3727
-r	-3728
;8	-3729
Aw	-3730
CP	-3731
DK	-3732
Q1	-3733
Tf	-3734
b	-3735
bF	-3736
p4	-3737
	-3738
I	-3739
e	-3740
	-3741
"t	-3742
*n	-3743
.q	-3744
3]	-3745
6t	-3746
=0	-3747
E/	-3748
Es	-3749
VV	-3750
b/	-3751
iX	-3752
���S	-3753
	-3754
4	-3755
@	-3756
9	-3757
k	-3758
^	-3759
0	-3760
f	-3761
"	-3762
#+	-3763
#r	-3764
6j	-3765
=2	-3766
=4	-3767
Gs	-3768
T	-3769
U1	-3770
i	-3771
ir	-3772
l>	-3773
}z	-3774
▁9	-3775
���4	-3776
{	-3777
	-3778
y	-3779
9	-3780
_	-3781
"o	-3782
.+	-3783
.r	-3784
.	-3785
6	-3786
6J	-3787
6Y	-3788
;/	-3789
E4	-3790
MY	-3791
R9	-3792
U9	-3793
cm	-3794
uJ	-3795
u{	-3796
���Y	-3797
J	-3798
t	-3799
	-3800
w	-3801
S	-3802
_	-3803
J	-3804
?x	-3805
CO	-3806
Cy	-3807
Dq	-3808
N,	-3809
R%	-3810
\	-3811
pK	-3812
py	-3813
���	-3814
y	-3815
`	-3816
H	-3817
@	-3818
{	-3819
@	-3820
w	-3821
~	-3822
!f	-3823
"P	-3824
8r	-3825
A`	-3826
EF	-3827
MX	-3828
R:	-3829
U:	-3830
[%	-3831
a	-3832
h+	-3833
hZ	-3834
J	-3835
G	-3836
	-3837
F	-3838
k	-3839
	-3840
"O	-3841
#x	-3842
$_	-3843
)Y	-3844
C,	-3845
Qk	-3846
U&	-3847
Uf	-3848
\	-3849
dL	-3850
dY	-3851
h/	-3852
hk	-3853
hq	-3854
it	-3855
mg	-3856
vg	-3857
Z	-3858
V	-3859
&	-3860
@	-3861
"2	-3862
)S	-3863
-%	-3864
7_	-3865
E%	-3866
Q>	-3867
c'	-3868
|>	-3869
}	-3870
}`	-3871
F	-3872
K	-3873
t	-3874
e	-3875
$G	-3876
6e	-3877
BJ	-3878
EO	-3879
Rx	-3880
T_	-3881
cS	-3882
p@	-3883
:	-3884
w	-3885
X	-3886
X	-3887
Y	-3888
S	-3889
"q	-3890
;	-3891
A'	-3892
AL	-3893
Qz	-3894
[r	-3895
b	-3896
cK	-3897
nI	-3898
u&	-3899
g	-3900
<	-3901
H	-3902
v	-3903
*q	-3904
5j	-3905
6H	-3906
G@	-3907
NI	-3908
TP	-3909
Vo	-3910
bP	-3911
hg	-3912
h{	-3913
<	-3914
`	-3915
o	-3916
7	-3917
*<	-3918
6:	-3919
8w	-3920
?o	-3921
E`	-3922
NL	-3923
[q	-3924
\O	-3925
bS	-3926
h	-3927
h(	-3928
4	-3929
m	-3930
t	-3931
4	-3932
`	-3933
q	-3934
+	-3935
_	-3936
_	-3937
w	-3938
r	-3939
Y	-3940
$	-3941
*	-3942
->	-3943
.`	-3944
2g	-3945
6w	-3946
E,	-3947
M9	-3948
Mx	-3949
Q	-3950
QV	-3951
Qg	-3952
TH	-3953
dO	-3954
sz	-3955
|P	-3956
▁q	-3957
x	-3958
q	-3959
"9	-3960
.~	-3961
Be	-3962
D	-3963
G~	-3964
R`	-3965
T&	-3966
U]	-3967
[e	-3968
iW	-3969
l	-3970
|1	-3971
j	-3972
{	-3973
z	-3974
(	-3975
o	-3976
!,	-3977
$/	-3978
*{	-3979
-@	-3980
.e	-3981
3&	-3982
6@	-3983
A%	-3984
AO	-3985
A	-3986
E8	-3987
M}	-3988
Nt	-3989
U/	-3990
\Z	-3991
a@	-3992
b,	-3993
|W	-3994
���	-3995
&	-3996
K	-3997
4	-3998
4	-3999
$(	-4000
$O	-4001
)'	-4002
)	-4003
*@	-4004
-P	-4005
3Z	-4006
7j	-4007
DJ	-4008
My	-4009
c^	-4010
d9	-4011
ie	-4012
lr	-4013
m>	-4014
▁0	-4015
@	-4016
S	-4017
4	-4018
K	-4019
	-4020
Z	-4021
J	-4022
{	-4023
<	-4024
8	-4025
"0	-4026
#	-4027
-Z	-4028
.J	-4029
.o	-4030
1%	-4031
=	-4032
Mn	-4033
Un	-4034
b(	-4035
ik	-4036
	-4037
s	-4038
+	-4039
~	-4040
I	-4041
)>	-4042
)z	-4043
*J	-4044
-k	-4045
.@	-4046
1X	-4047
2t	-4048
7&	-4049
A	-4050
En	-4051
QO	-4052
[	-4053
av	-4054
dx	-4055
hP	-4056
|%	-4057
'	-4058
+	-4059
K	-4060
r	-4061
H	-4062
#O	-4063
$X	-4064
7	-4065
M]	-4066
N'	-4067
RY	-4068
Uk	-4069
b^	-4070
cF	-4071
iL	-4072
p	-4073
▁,	-4074
▁O	-4075
���G	-4076
Y	-4077
_	-4078
y	-4079
_	-4080
F	-4081
	-4082
	-4083
K	-4084
$'	-4085
*	-4086
-V	-4087
7w	-4088
=x	-4089
E	-4090
N~	-4091
Q+	-4092
Rt	-4093
T	-4094
W0	-4095
[w	-4096
\%	-4097
d4	-4098
h%	-4099
h8	-4100
|^	-4101
▁'	-4102
	-4103
V	-4104
`	-4105
<	-4106
k	-4107
z	-4108
*f	-4109
7/	-4110
?^	-4111
Ar	-4112
M(	-4113
QK	-4114
io	-4115
V	-4116
v	-4117
(	-4118
W	-4119
g	-4120
I	-4121
g	-4122
{	-4123
!%	-4124
!'	-4125
$~	-4126
5%	-4127
6s	-4128
D	-4129
Dx	-4130
UF	-4131
[0	-4132
ag	-4133
ls	-4134
ms	-4135
p'	-4136
▁:	-4137
(	-4138
x	-4139
	-4140
V	-4141
P	-4142
)r	-4143
*9	-4144
1y	-4145
3y	-4146
?4	-4147
A,	-4148
N@	-4149
Q&	-4150
Uz	-4151
aW	-4152
d	-4153
hI	-4154
i(	-4155
u	-4156
|]	-4157
,	-4158
r	-4159
O	-4160
q	-4161
#W	-4162
*	-4163
-I	-4164
.'	-4165
1	-4166
1P	-4167
A{	-4168
RP	-4169
T(	-4170
[`	-4171
a^	-4172
c9	-4173
dj	-4174
hJ	-4175
hK	-4176
is	-4177
_	-4178
	-4179
r	-4180
o	-4181
t	-4182
q	-4183
{	-4184
	-4185
0	-4186
y	-4187
",	-4188
DX	-4189
E&	-4190
MW	-4191
ay	-4192
c>	-4193
}~	-4194
▁2	-4195
S	-4196
]	-4197
v	-4198
(	-4199
]	-4200
!g	-4201
!	-4202
"@	-4203
$	-4204
$9	-4205
-Y	-4206
7%	-4207
R4	-4208
Tt	-4209
}j	-4210
8	-4211
4	-4212
!+	-4213
$+	-4214
7	-4215
;%	-4216
A0	-4217
E@	-4218
E{	-4219
Gk	-4220
Mw	-4221
Tv	-4222
[Y	-4223
eX	-4224
▁g	-4225
k	-4226
'	-4227
w	-4228
Z	-4229
,	-4230
"F	-4231
$%	-4232
*j	-4233
5	-4234
AY	-4235
M'	-4236
M{	-4237
Ty	-4238
Tz	-4239
UZ	-4240
aB	-4241
d>	-4242
n(	-4243
▁f	-4244
r	-4245
	-4246
x	-4247
4	-4248
z	-4249
"s	-4250
#~	-4251
-'	-4252
2	-4253
7'	-4254
AK	-4255
E'	-4256
GS	-4257
UK	-4258
[4	-4259
i_	-4260
lO	-4261
|	-4262
4	-4263
	-4264
w	-4265
4	-4266
L	-4267
k	-4268
m	-4269
I	-4270
k	-4271
	-4272
!V	-4273
"S	-4274
$Z	-4275
)s	-4276
-y	-4277
.P	-4278
3	-4279
E9	-4280
Gq	-4281
RL	-4282
hf	-4283
���D	-4284
@	-4285
o	-4286
J	-4287
K	-4288
s	-4289
y	-4290
#]	-4291
3_	-4292
3	-4293
6K	-4294
Ax	-4295
M:	-4296
R(	-4297
[J	-4298
\0	-4299
dw	-4300
���9	-4301
r	-4302
O	-4303
/	-4304
>	-4305
C	-4306
v	-4307
t	-4308
z	-4309
9	-4310
	-4311
"H	-4312
*S	-4313
-4	-4314
-w	-4315
.y	-4316
Ro	-4317
[s	-4318
c(	-4319
dH	-4320
i{	-4321
l0	-4322
my	-4323
���?	-4324
P	-4325
~	-4326
W	-4327
r	-4328
"&	-4329
"4	-4330
Dr	-4331
EH	-4332
Ez	-4333
T`	-4334
b+	-4335
c%	-4336
cv	-4337
d(	-4338
dK	-4339
▁	-4340
	-4341
V	-4342
H	-4343
j	-4344
z	-4345
f	-4346
&	-4347
0	-4348
$&	-4349
$L	-4350
)]	-4351
6<	-4352
B9	-4353
GL	-4354
a'	-4355
uP	-4356
▁w	-4357
	-4358
v	-4359
Y	-4360
z	-4361
V	-4362
y	-4363
0	-4364
*	-4365
*]	-4366
-/	-4367
1s	-4368
59	-4369
DZ	-4370
QS	-4371
R/	-4372
Rf	-4373
[^	-4374
hF	-4375
i8	-4376
u	-4377
u9	-4378
un	-4379
F	-4380
;	-4381
Y	-4382
	-4383
	-4384
)l	-4385
*e	-4386
*x	-4387
-e	-4388
1g	-4389
7V	-4390
7Y	-4391
7~	-4392
B_	-4393
C4	-4394
TN	-4395
Tx	-4396
U%	-4397
\8	-4398
c}	-4399
	-4400
X	-4401
v	-4402
$g	-4403
)`	-4404
6v	-4405
7<	-4406
Bs	-4407
ES	-4408
|S	-4409
O	-4410
<	-4411
Z	-4412
q	-4413
%	-4414
>	-4415
W	-4416
q	-4417
H	-4418
k	-4419
"<	-4420
*'	-4421
*v	-4422
.	-4423
.{	-4424
1I	-4425
5o	-4426
By	-4427
UW	-4428
[I	-4429
d_	-4430
hy	-4431
i/	-4432
iP	-4433
iq	-4434
u(	-4435
s	-4436
~	-4437
^	-4438
9	-4439
	-4440
~	-4441
S	-4442
S	-4443
$q	-4444
7(	-4445
7,	-4446
Ae	-4447
BK	-4448
BO	-4449
EX	-4450
[2	-4451
cn	-4452
iK	-4453
m:	-4454
pI	-4455
���~	-4456
0	-4457
q	-4458
f	-4459
	-4460
r	-4461
	-4462
P	-4463
(	-4464
	-4465
P	-4466
F	-4467
#v	-4468
$`	-4469
D4	-4470
E	-4471
G%	-4472
Re	-4473
a>	-4474
ae	-4475
h]	-4476
ho	-4477
iZ	-4478
pn	-4479
X	-4480
	-4481
z	-4482
%	-4483
%	-4484
%	-4485
n	-4486
?	-4487
'	-4488
e	-4489
w	-4490
!O	-4491
$o	-4492
=%	-4493
D0	-4494
D~	-4495
RO	-4496
c;	-4497
/	-4498
_	-4499
x	-4500
g	-4501
t	-4502
0	-4503
J	-4504
f	-4505
'	-4506
0	-4507
$,	-4508
$K	-4509
-~	-4510
B;	-4511
Cr	-4512
DF	-4513
De	-4514
G_	-4515
\s	-4516
d8	-4517
▁`	-4518
%	-4519
y	-4520
s	-4521
_	-4522
r	-4523
!I	-4524
-+	-4525
6`	-4526
C	-4527
Eo	-4528
Qe	-4529
T]	-4530
c_	-4531
dr	-4532
hS	-4533
he	-4534
i+	-4535
e	-4536
s	-4537
	-4538
]	-4539
~	-4540
P	-4541
"_	-4542
$s	-4543
*k	-4544
1J	-4545
5`	-4546
D:	-4547
Df	-4548
Nx	-4549
b%	-4550
d/	-4551
dJ	-4552
jL	-4553
u'	-4554
|K	-4555
▁	-4556
▁~	-4557
\	-4558
y	-4559
r	-4560
Z	-4561
	-4562
f	-4563
Y	-4564
m	-4565
V	-4566
I	-4567
$t	-4568
-	-4569
DY	-4570
RK	-4571
U8	-4572
Ug	-4573
Uw	-4574
[O	-4575
a~	-4576
b>	-4577
dt	-4578
jk	-4579
uI	-4580
▁y	-4581
���	-4582
~	-4583
	-4584
	-4585
'	-4586
`	-4587
	-4588
K	-4589
!e	-4590
*4	-4591
5	-4592
5s	-4593
7+	-4594
7I	-4595
Q?	-4596
b@	-4597
uw	-4598
|e	-4599
2	-4600
2	-4601
m	-4602
w	-4603
9	-4604
8	-4605
e	-4606
I	-4607
;	-4608
f	-4609
!:	-4610
$S	-4611
5]	-4612
64	-4613
D%	-4614
DS	-4615
Tg	-4616
h@	-4617
hW	-4618
p	-4619
us	-4620
▁<	-4621
3	-4622
'	-4623
N	-4624
;	-4625
q	-4626
	-4627
"	-4628
":	-4629
$>	-4630
)N	-4631
)x	-4632
*V	-4633
14	-4634
1`	-4635
dF	-4636
}Y	-4637
y	-4638
@	-4639
?	-4640
q	-4641
;	-4642
'	-4643
;	-4644
9	-4645
v	-4646
#	-4647
"W	-4648
5e	-4649
6k	-4650
7L	-4651
7{	-4652
D<	-4653
D@	-4654
|`	-4655
▁>	-4656
���	-4657
k	-4658
s	-4659
v	-4660
`	-4661
w	-4662
N	-4663
e	-4664
(	-4665
q	-4666
{	-4667
!J	-4668
)?	-4669
1o	-4670
A&	-4671
C?	-4672
Q9	-4673
Um	-4674
c?	-4675
h&	-4676
i:	-4677
}0	-4678
���=	-4679
`	-4680
j	-4681
W	-4682
4	-4683
s	-4684
{	-4685
e	-4686
V	-4687
Z	-4688
*>	-4689
-_	-4690
1(	-4691
5	-4692
CZ	-4693
Me	-4694
Q	-4695
Q	-4696
Rm	-4697
T9	-4698
U2	-4699
US	-4700
[	-4701
[	-4702
d0	-4703
	-4704
2	-4705
?	-4706
V	-4707
I	-4708
	-4709
!/	-4710
#0	-4711
$y	-4712
*y	-4713
.Y	-4714
A:	-4715
M/	-4716
d{	-4717
iV	-4718
u4	-4719
}/	-4720
}^	-4721
(	-4722
O	-4723
O	-4724
Y	-4725
s	-4726
-x	-4727
6W	-4728
C^	-4729
D2	-4730
EZ	-4731
GZ	-4732
Ms	-4733
i9	-4734
▁H	-4735
m	-4736
Y	-4737
	-4738
&	-4739
w	-4740
!Z	-4741
!~	-4742
-{	-4743
3j	-4744
R~	-4745
al	-4746
a{	-4747
iS	-4748
|&	-4749
▁N	-4750
_	-4751
4	-4752
#	-4753
k	-4754
r	-4755
]	-4756
V	-4757
f	-4758
._	-4759
7F	-4760
D,	-4761
Do	-4762
R>	-4763
R]	-4764
Ry	-4765
[:	-4766
\&	-4767
p9	-4768
uY	-4769
ue	-4770
s	-4771
0	-4772
k	-4773
k	-4774
!H	-4775
$<	-4776
.n	-4777
3m	-4778
7`	-4779
A8	-4780
Aq	-4781
D9	-4782
Q/	-4783
R'	-4784
U	-4785
[y	-4786
\w	-4787
d	-4788
▁(	-4789
]	-4790
	-4791
V	-4792
	-4793
W	-4794
4	-4795
o	-4796
*:	-4797
*	-4798
A_	-4799
C~	-4800
M^	-4801
RH	-4802
T@	-4803
aV	-4804
dW	-4805
`	-4806
	-4807
9	-4808
4	-4809
	-4810
4	-4811
I	-4812
4	-4813
@	-4814
f	-4815
?	-4816
!0	-4817
$f	-4818
)w	-4819
*z	-4820
1@	-4821
R<	-4822
T	-4823
T~	-4824
\v	-4825
|@	-4826
}%	-4827
▁e	-4828
	-4829
z	-4830
?	-4831
z	-4832
#	-4833
J	-4834
`	-4835
+	-4836
m	-4837
.9	-4838
6]	-4839
7P	-4840
A@	-4841
D>	-4842
GV	-4843
M	-4844
TW	-4845
Tm	-4846
cH	-4847
P	-4848
>	-4849
<	-4850
q	-4851
'	-4852
-]	-4853
.;	-4854
69	-4855
D?	-4856
G	-4857
R	-4858
RV	-4859
a+	-4860
h	-4861
iH	-4862
;	-4863
j	-4864
#	-4865
	-4866
@	-4867
V	-4868
~	-4869
W	-4870
!_	-4871
!j	-4872
3Y	-4873
A+	-4874
BP	-4875
B^	-4876
DL	-4877
Dt	-4878
\F	-4879
b;	-4880
bH	-4881
c~	-4882
lq	-4883
f	-4884
W	-4885
?	-4886
+	-4887
g	-4888
!W	-4889
C_	-4890
G>	-4891
Rv	-4892
T	-4893
T8	-4894
UV	-4895
\;	-4896
be	-4897
dX	-4898
▁P	-4899
N	-4900
Y	-4901
	-4902
Z	-4903
+	-4904
J	-4905
j	-4906
w	-4907
q	-4908
"j	-4909
*P	-4910
6{	-4911
GJ	-4912
GY	-4913
M+	-4914
TS	-4915
dy	-4916
iY	-4917
y	-4918
%	-4919
P	-4920
w	-4921
;	-4922
!L	-4923
"f	-4924
*~	-4925
.4	-4926
.W	-4927
1v	-4928
2L	-4929
3	-4930
3+	-4931
5W	-4932
B%	-4933
Rz	-4934
Ts	-4935
ak	-4936
i	-4937
l'	-4938
▁4	-4939
▁j	-4940
?	-4941
X	-4942
!{	-4943
"`	-4944
)m	-4945
.s	-4946
Ee	-4947
Q]	-4948
Rk	-4949
U_	-4950
a?	-4951
u%	-4952
▁k	-4953
���p	-4954
}�������	-4955
_	-4956
W	-4957
Y	-4958
e	-4959
s	-4960
#N	-4961
*w	-4962
1H	-4963
M2	-4964
U>	-4965
[9	-4966
bK	-4967
l	-4968
	-4969
:	-4970
W	-4971
x	-4972
V	-4973
	-4974
5'	-4975
8X	-4976
M>	-4977
U{	-4978
\'	-4979
bz	-4980
u>	-4981
▁n	-4982
W	-4983
H	-4984
;	-4985
?	-4986
<	-4987
6+	-4988
Cz	-4989
U(	-4990
\N	-4991
aw	-4992
b	-4993
▁	-4994
Y	-4995
]	-4996
`	-4997
x	-4998
j	-4999
s	-5000
#`	-5001
-K	-5002
.I	-5003
1e	-5004
5+	-5005
6X	-5006
M%	-5007
MN	-5008
[P	-5009
\z	-5010
bN	-5011
d<	-5012
l/	-5013
9	-5014
j	-5015
!	-5016
!]	-5017
"(	-5018
"v	-5019
3K	-5020
82	-5021
GN	-5022
\	-5023
\9	-5024
hH	-5025
i%	-5026
uN	-5027
e	-5028
(	-5029
j	-5030
>	-5031
P	-5032
H	-5033
>	-5034
m	-5035
-N	-5036
5x	-5037
A?	-5038
Mj	-5039
i2	-5040
?	-5041
n	-5042
<	-5043
~	-5044
#%	-5045
$P	-5046
$k	-5047
.w	-5048
5z	-5049
=Y	-5050
GO	-5051
Tn	-5052
lW	-5053
pX	-5054
uO	-5055
O	-5056
	-5057
4	-5058
2	-5059
v	-5060
	-5061
4	-5062
;	-5063
y	-5064
S	-5065
"]	-5066
#4	-5067
$]	-5068
1W	-5069
D_	-5070
Tw	-5071
}	-5072
▁	-5073
O	-5074
f	-5075
	-5076
N	-5077
j	-5078
	-5079
!	-5080
$:	-5081
$w	-5082
6P	-5083
=_	-5084
B&	-5085
G2	-5086
\I	-5087
b&	-5088
d@	-5089
l+	-5090
pe	-5091
u+	-5092
|�������	-5093
;	-5094
2	-5095
C	-5096
!>	-5097
!n	-5098
Ay	-5099
B?	-5100
E(	-5101
Gr	-5102
bY	-5103
l?	-5104
p]	-5105
▁{	-5106
'	-5107
1w	-5108
A4	-5109
BS	-5110
C%	-5111
D	-5112
DN	-5113
G]	-5114
Mz	-5115
i@	-5116
|9	-5117
f	-5118
;	-5119
	-5120
O	-5121
s	-5122
S	-5123
N	-5124
e	-5125
y	-5126
g	-5127
s	-5128
4	-5129
9	-5130
!9	-5131
!z	-5132
#F	-5133
1j	-5134
5{	-5135
74	-5136
AF	-5137
D	-5138
d;	-5139
v	-5140
	-5141
N	-5142
m	-5143
9	-5144
V	-5145
5N	-5146
8z	-5147
Us	-5148
\>	-5149
\e	-5150
dS	-5151
2	-5152
?	-5153
$j	-5154
3I	-5155
A^	-5156
Br	-5157
as	-5158
b?	-5159
h'	-5160
l	-5161
lv	-5162
nO	-5163
▁X	-5164
I	-5165
j	-5166
O	-5167
!o	-5168
$;	-5169
5I	-5170
A<	-5171
Ak	-5172
BF	-5173
Gv	-5174
[f	-5175
[v	-5176
d&	-5177
r	-5178
	-5179
>	-5180
C	-5181
j	-5182
m	-5183
r	-5184
2	-5185
H	-5186
{	-5187
"~	-5188
#;	-5189
1{	-5190
3(	-5191
6I	-5192
Em	-5193
G+	-5194
MS	-5195
Q{	-5196
\j	-5197
am	-5198
q	-5199
|	-5200
>	-5201
m	-5202
$	-5203
*2	-5204
7y	-5205
D]	-5206
T	-5207
\2	-5208
d,	-5209
hY	-5210
'	-5211
>	-5212
g	-5213
2	-5214
~	-5215
N	-5216
+	-5217
]	-5218
!<	-5219
-m	-5220
3z	-5221
At	-5222
D{	-5223
an	-5224
	-5225
N	-5226
q	-5227
j	-5228
y	-5229
0	-5230
	-5231
I	-5232
j	-5233
<	-5234
#y	-5235
.v	-5236
AX	-5237
DV	-5238
▁?	-5239
>	-5240
	-5241
r	-5242
@	-5243
@	-5244
5K	-5245
6'	-5246
6g	-5247
B:	-5248
Bf	-5249
\K	-5250
\f	-5251
i'	-5252
i>	-5253
lP	-5254
▁S	-5255
0	-5256
}	-5257
=	-5258
>	-5259
~	-5260
H	-5261
"?	-5262
.K	-5263
1'	-5264
3~	-5265
5n	-5266
8S	-5267
AJ	-5268
B2	-5269
Bx	-5270
G,	-5271
T'	-5272
UH	-5273
b_	-5274
d%	-5275
dZ	-5276
d]	-5277
df	-5278
h	-5279
h^	-5280
lI	-5281
p^	-5282
9	-5283
0	-5284
+	-5285
3e	-5286
5~	-5287
7f	-5288
AZ	-5289
QW	-5290
RW	-5291
hn	-5292
hs	-5293
lF	-5294
<	-5295
z	-5296
j	-5297
x	-5298
P	-5299
#S	-5300
*`	-5301
.2	-5302
.?	-5303
6y	-5304
=I	-5305
|}	-5306
~	-5307
O	-5308
_	-5309
f	-5310
	-5311
"z	-5312
$V	-5313
.}	-5314
7k	-5315
T{	-5316
UO	-5317
d'	-5318
l%	-5319
lY	-5320
uX	-5321
|(	-5322
	-5323
	-5324
K	-5325
(	-5326
4	-5327
$	-5328
6	-5329
Am	-5330
CN	-5331
T?	-5332
|f	-5333
q	-5334
w	-5335
y	-5336
+	-5337
Y	-5338
	-5339
>	-5340
}	-5341
#	-5342
19	-5343
Gy	-5344
MZ	-5345
\S	-5346
ap	-5347
ig	-5348
u8	-5349
8	-5350
8	-5351
w	-5352
~	-5353
e	-5354
E_	-5355
do	-5356
dz	-5357
l8	-5358
]	-5359
~	-5360
!S	-5361
!Y	-5362
"n	-5363
-j	-5364
1	-5365
5/	-5366
6/	-5367
=/	-5368
B4	-5369
C`	-5370
E]	-5371
QN	-5372
[z	-5373
d	-5374
lx	-5375
m	-5376
o	-5377
e	-5378
y	-5379
W	-5380
$2	-5381
6O	-5382
DH	-5383
iF	-5384
pY	-5385
uZ	-5386
<	-5387
I	-5388
S	-5389
	-5390
8	-5391
r	-5392
@	-5393
1Y	-5394
Bt	-5395
G9	-5396
GF	-5397
M	-5398
R8	-5399
lV	-5400
pZ	-5401
▁v	-5402
	-5403
<	-5404
^	-5405
I	-5406
S	-5407
2	-5408
!N	-5409
!k	-5410
$z	-5411
${	-5412
1+	-5413
7K	-5414
G4	-5415
aK	-5416
=	-5417
H	-5418
r	-5419
V	-5420
!2	-5421
!K	-5422
#2	-5423
*(	-5424
Cj	-5425
[;	-5426
d	-5427
dq	-5428
i	-5429
i&	-5430
u}	-5431
}	-5432
	-5433
8	-5434
~	-5435
#f	-5436
)=	-5437
7W	-5438
A(	-5439
D(	-5440
bW	-5441
���|	-5442
e	-5443
8	-5444
W	-5445
J	-5446
5H	-5447
6z	-5448
B	-5449
B>	-5450
BX	-5451
>	-5452
-	-5453
}	-5454
N	-5455
K	-5456
!(	-5457
"N	-5458
*;	-5459
B0	-5460
B~	-5461
Cv	-5462
M8	-5463
[j	-5464
}	-5465
;	-5466
j	-5467
?	-5468
v	-5469
%	-5470
#z	-5471
*N	-5472
EP	-5473
[>	-5474
\V	-5475
bV	-5476
bq	-5477
ds	-5478
▁V	-5479
▁m	-5480
W	-5481
>	-5482
r	-5483
	-5484
3	-5485
+	-5486
(	-5487
@	-5488
AS	-5489
BV	-5490
lS	-5491
l{	-5492
p%	-5493
H	-5494
@	-5495
}	-5496
	-5497
"m	-5498
*	-5499
5S	-5500
7]	-5501
Q|	-5502
[&	-5503
9	-5504
n	-5505
r	-5506
W	-5507
j	-5508
@	-5509
-W	-5510
Rn	-5511
\m	-5512
i]	-5513
Y	-5514
e	-5515
S	-5516
!`	-5517
#@	-5518
$4	-5519
1_	-5520
1z	-5521
3f	-5522
7?	-5523
[@	-5524
dk	-5525
l9	-5526
u2	-5527
▁z	-5528
8	-5529
v	-5530
^	-5531
I	-5532
=	-5533
v	-5534
v	-5535
?	-5536
3n	-5537
B]	-5538
C9	-5539
C:	-5540
Q'	-5541
b'	-5542
ic	-5543
|	-5544
|_	-5545
v	-5546
9	-5547
V	-5548
r	-5549
<	-5550
@	-5551
g	-5552
n	-5553
#>	-5554
[c	-5555
\c	-5556
N	-5557
I	-5558
}	-5559
2	-5560
r	-5561
k	-5562
Dv	-5563
G	-5564
M~	-5565
bn	-5566
de	-5567
uK	-5568
2	-5569
'	-5570
e	-5571
2	-5572
W	-5573
4	-5574
m	-5575
8	-5576
0	-5577
$N	-5578
As	-5579
\W	-5580
b]	-5581
`	-5582
~	-5583
,	-5584
(	-5585
!?	-5586
!q	-5587
1K	-5588
5>	-5589
Af	-5590
BZ	-5591
DP	-5592
E;	-5593
EN	-5594
uH	-5595
|H	-5596
8	-5597
f	-5598
y	-5599
m	-5600
v	-5601
	-5602
c	-5603
>	-5604
r	-5605
1x	-5606
:<	-5607
G3	-5608
\H	-5609
l(	-5610
lN	-5611
u	-5612
|F	-5613
>	-5614
v	-5615
V	-5616
j	-5617
Qm	-5618
RS	-5619
i	-5620
l~	-5621
p{	-5622
9	-5623
r	-5624
g	-5625
	-5626
@	-5627
K	-5628
%	-5629
=	-5630
=F	-5631
Gz	-5632
M	-5633
U'	-5634
\@	-5635
dP	-5636
hv	-5637
u^	-5638
}	-5639
z	-5640
z	-5641
<	-5642
H	-5643
m	-5644
g	-5645
(	-5646
A	-5647
B3	-5648
Gn	-5649
d+	-5650
>	-5651
C	-5652
c	-5653
	-5654
#8	-5655
$v	-5656
7n	-5657
;y	-5658
uS	-5659
|N	-5660
|O	-5661
@	-5662
~	-5663
n	-5664
f	-5665
-?	-5666
-n	-5667
6>	-5668
R?	-5669
uW	-5670
wq	-5671
P	-5672
m	-5673
v	-5674
#&	-5675
1n	-5676
1~	-5677
3	-5678
A~	-5679
EC	-5680
Gj	-5681
Qs	-5682
i^	-5683
N	-5684
2	-5685
	-5686
2	-5687
+	-5688
e	-5689
m	-5690
#e	-5691
-	-5692
-S	-5693
=V	-5694
=e	-5695
B	-5696
B`	-5697
[W	-5698
u/	-5699
x	-5700
>	-5701
	-5702
j	-5703
R_	-5704
iy	-5705
W	-5706
q	-5707
#j	-5708
7>	-5709
G(	-5710
[m	-5711
dn	-5712
p/	-5713
▁x	-5714
C	-5715
I	-5716
#9	-5717
7:	-5718
Dn	-5719
Gf	-5720
MV	-5721
U~	-5722
j	-5723
m	-5724
S	-5725
"C	-5726
*?	-5727
G;	-5728
N	-5729
8	-5730
n	-5731
V	-5732
!r	-5733
!t	-5734
#V	-5735
)v	-5736
1m	-5737
=j	-5738
a	-5739
@	-5740
?	-5741
'	-5742
>	-5743
3%	-5744
3}	-5745
6o	-5746
7e	-5747
Aj	-5748
E	-5749
E?	-5750
[~	-5751
h5	-5752
|n	-5753
C	-5754
y	-5755
'	-5756
e	-5757
"V	-5758
-(	-5759
=+	-5760
Qw	-5761
[]	-5762
hz	-5763
iN	-5764
|V	-5765
8	-5766
2	-5767
r	-5768
C	-5769
W	-5770
	-5771
8	-5772
,L	-5773
.X	-5774
7O	-5775
RN	-5776
^`	-5777
dN	-5778
dV	-5779
dv	-5780
h~	-5781
l@	-5782
���U	-5783
;	-5784
N	-5785
0	-5786
">	-5787
"x	-5788
*8	-5789
R	-5790
|?	-5791
q	-5792
V	-5793
c	-5794
!P	-5795
.	-5796
AP	-5797
B@	-5798
i;	-5799
wz	-5800
j	-5801
2	-5802
N	-5803
E	-5804
bv	-5805
e	-5806
2	-5807
7N	-5808
::	-5809
C2	-5810
R{	-5811
[V	-5812
j	-5813
(	-5814
g	-5815
1O	-5816
1V	-5817
3H	-5818
AH	-5819
BN	-5820
hV	-5821
i?	-5822
l^	-5823
uV	-5824
���	-5825
9	-5826
'	-5827
79	-5828
A9	-5829
Dz	-5830
MK	-5831
iz	-5832
uc	-5833
▁]	-5834
c	-5835
~	-5836
6;	-5837
7	-5838
\(	-5839
���c	-5840
�������	-5841
	-5842
g	-5843
8	-5844
Y	-5845
38	-5846
A>	-5847
A]	-5848
n	-5849
	-5850
g	-5851
v	-5852
6x	-5853
A2	-5854
AV	-5855
ly	-5856
z	-5857
���}	-5858
)}	-5859
3N	-5860
p?	-5861
���5	-5862
#(	-5863
$?	-5864
7	-5865
Cm	-5866
^_	-5867
in	-5868
{	-5869
-	-5870
H	-5871
!v	-5872
3S	-5873
7m	-5874
;'	-5875
=N	-5876
hN	-5877
l]	-5878
-	-5879
>	-5880
3O	-5881
6n	-5882
=m	-5883
=}	-5884
G:	-5885
Rs	-5886
R}	-5887
['	-5888
[N	-5889
▁	-5890
c	-5891
n	-5892
&F	-5893
,	-5894
1	-5895
=(	-5896
D	-5897
k<	-5898
U	-5899
m	-5900
y	-5901
;	-5902
-	-5903
>	-5904
!	-5905
*m	-5906
3?	-5907
5_	-5908
7	-5909
Bj	-5910
GK	-5911
[(	-5912
im	-5913
H	-5914
j	-5915
q	-5916
	-5917
n	-5918
c	-5919
BH	-5920
E	-5921
TM	-5922
W/	-5923
aM	-5924
p+	-5925
9	-5926
s	-5927
	-5928
5m	-5929
\n	-5930
h?	-5931
`	-5932
	-5933
B(	-5934
Ce	-5935
\?	-5936
���#	-5937
1/	-5938
7	-5939
Fs	-5940
d^	-5941
h}	-5942
|	-5943
w	-5944
?	-5945
9	-5946
Y	-5947
e	-5948
2	-5949
;	-5950
m	-5951
=]	-5952
C]	-5953
Q	-5954
n	-5955
?	-5956
}	-5957
M	-5958
$n	-5959
&0	-5960
G	-5961
GP	-5962
lK	-5963
l}	-5964
���	-5965
z	-5966
n	-5967
I	-5968
39	-5969
7S	-5970
Ds	-5971
[}	-5972
\	-5973
a;	-5974
lZ	-5975
le	-5976
���M	-5977
#	-5978
N	-5979
~	-5980
;	-5981
	-5982
.p	-5983
C;	-5984
EU	-5985
Ge	-5986
b}	-5987
q`	-5988
qg	-5989
W	-5990
M	-5991
!s	-5992
8Z	-5993
C>	-5994
[F	-5995
ac	-5996
h	-5997
c	-5998
5	-5999
QM	-6000
lH	-6001
o`	-6002
u|	-6003
W	-6004
$m	-6005
[?	-6006
b	-6007
h	-6008
~	-6009
	-6010
!}	-6011
7H	-6012
T|	-6013
~	-6014
	-6015
@	-6016
)8	-6017
+g	-6018
2	-6019
=&	-6020
=@	-6021
=f	-6022
lz	-6023
f	-6024
	-6025
J	-6026
Av	-6027
XX	-6028
ZY	-6029
[|	-6030
{r	-6031
s	-6032
;	-6033
!4	-6034
!y	-6035
"-	-6036
1k	-6037
1}	-6038
���	-6039
9	-6040
/	-6041
@	-6042
)	-6043
='	-6044
An	-6045
C&	-6046
E	-6047
Q	-6048
h-	-6049
ps	-6050
▁#	-6051
N	-6052
n	-6053
m	-6054
r	-6055
1>	-6056
6m	-6057
w:	-6058
	-6059
	-6060
:	-6061
;	-6062
(L	-6063
G8	-6064
G`	-6065
JL	-6066
[S	-6067
���	-6068
	-6069
<	-6070
?	-6071
W	-6072
c	-6073
"}	-6074
3V	-6075
B8	-6076
O/	-6077
i}	-6078
q<	-6079
'	-6080
T	-6081
	-6082
	-6083
	-6084
6S	-6085
Bv	-6086
F0	-6087
b	-6088
fs	-6089
-	-6090
x	-6091
	-6092
6?	-6093
6~	-6094
	-6095
M	-6096
m	-6097
s	-6098
'{	-6099
*}	-6100
D`	-6101
ce	-6102
iv	-6103
|Q	-6104
▁	-6105
t	-6106
!w	-6107
+<	-6108
5p	-6109
6	-6110
FF	-6111
[n	-6112
���	-6113
	-6114
#m	-6115
Bz	-6116
Cn	-6117
PJ	-6118
Rw	-6119
Zr	-6120
\.	-6121
a}	-6122
8	-6123
-	-6124
-	-6125
M	-6126
	-6127
";	-6128
)h	-6129
:x	-6130
D	-6131
HY	-6132
O&	-6133
a	-6134
	-6135
2	-6136
>	-6137
&	-6138
!@	-6139
)	-6140
+,	-6141
P^	-6142
d?	-6143
gx	-6144
l&	-6145
o	-6146
	-6147
;	-6148
	-6149
,,	-6150
[U	-6151
cV	-6152
���\	-6153
=	-6154
	-6155
n	-6156
	-6157
W	-6158
#n	-6159
$}	-6160
)	-6161
5}	-6162
7;	-6163
pS	-6164
	-6165
	-6166
D8	-6167
L	-6168
*-	-6169
EQ	-6170
E}	-6171
H%	-6172
Kk	-6173
Kv	-6174
`j	-6175
▁R	-6176
���B	-6177
	-6178
-	-6179
	-6180
2	-6181
8	-6182
)	-6183
Az	-6184
Dm	-6185
a	-6186
aG	-6187
bh	-6188
eO	-6189
w@	-6190
=	-6191
	-6192
}	-6193
#}	-6194
$1	-6195
Y`	-6196
cW	-6197
i~	-6198
p	-6199
	-6200
~	-6201
}	-6202
P	-6203
)5	-6204
.x	-6205
AG	-6206
HJ	-6207
Ht	-6208
KX	-6209
[h	-6210
pO	-6211
���3	-6212
	-6213
	-6214
-	-6215
	-6216
	-6217
+0	-6218
,t	-6219
/:	-6220
C@	-6221
CF	-6222
D;	-6223
T;	-6224
pW	-6225
|m	-6226
3	-6227
-	-6228
M	-6229
U	-6230
	-6231
n	-6232
M	-6233
.=	-6234
0t	-6235
\}	-6236
u	-6237
���"	-6238
=	-6239
's	-6240
)	-6241
1N	-6242
5O	-6243
D	-6244
b6	-6245
y	-6246
}	-6247
m	-6248
	-6249
j	-6250
Bm	-6251
E	-6252
Z,	-6253
\-	-6254
b	-6255
kx	-6256
p	-6257
yq	-6258
���	-6259
	-6260
<	-6261
Pj	-6262
,	-6263
/	-6264
	-6265
=	-6266
#	-6267
M	-6268
5	-6269
5;	-6270
Cf	-6271
Ft	-6272
SY	-6273
a	-6274
hl	-6275
p_	-6276
�������	-6277
	-6278
V	-6279
	-6280
T	-6281
ER	-6282
FX	-6283
Q;	-6284
w'	-6285
▁}	-6286
M	-6287
#-	-6288
QU	-6289
S	-6290
`x	-6291
	-6292
<	-6293
	-6294
\	-6295
c	-6296
+/	-6297
/@	-6298
gX	-6299
▁	-6300
{	-6301
v	-6302
2	-6303
.	-6304
1=	-6305
8y	-6306
KJ	-6307
Kw	-6308
h	-6309
i-	-6310
il	-6311
p=	-6312
qk	-6313
uU	-6314
▁;	-6315
3	-6316
}	-6317
@	-6318
	-6319
!X	-6320
!m	-6321
+k	-6322
1S	-6323
4	-6324
7z	-6325
H<	-6326
T-	-6327
Vt	-6328
{	-6329
����������	-6330
c	-6331
%	-6332
'	-6333
"U	-6334
$M	-6335
)-	-6336
3	-6337
}	-6338
$	-6339
E=	-6340
FI	-6341
HI	-6342
K'	-6343
L,	-6344
Q	-6345
T}	-6346
^^	-6347
`	-6348
fI	-6349
h|	-6350
pw	-6351
u	-6352
n	-6353
7	-6354
	-6355
b	-6356
"	-6357
&t	-6358
)	-6359
AN	-6360
ib	-6361
o0	-6362
#3	-6363
&N	-6364
+:	-6365
4I	-6366
B	-6367
E	-6368
H	-6369
h;	-6370
hT	-6371
hm	-6372
p	-6373
~z	-6374
}	-6375
}	-6376
8	-6377
9v	-6378
BG	-6379
Fx	-6380
V_	-6381
Yt	-6382
pN	-6383
���	-6384
	-6385
	-6386
-	-6387
$	-6388
&:	-6389
)[	-6390
)|	-6391
*.	-6392
E3	-6393
Q.	-6394
ZK	-6395
a5	-6396
p6	-6397
	-6398
-	-6399
/v	-6400
<>	-6401
D	-6402
EG	-6403
Q-	-6404
ZX	-6405
aU	-6406
{X	-6407
▁	-6408
(	-6409
}	-6410
)c	-6411
1?	-6412
2^	-6413
E	-6414
a"	-6415
j%	-6416
u.	-6417
n	-6418
-	-6419
n	-6420
)	-6421
6	-6422
BU	-6423
a=	-6424
▁	-6425
C	-6426
?	-6427
(_	-6428
/~	-6429
E#	-6430
R"	-6431
Wr	-6432
i|	-6433
sJ	-6434
▁A	-6435
U	-6436
M	-6437
B#	-6438
X>	-6439
bm	-6440
ev	-6441
u-	-6442
wk	-6443
^	-6444
	-6445
&f	-6446
&~	-6447
(	-6448
0r	-6449
8v	-6450
K_	-6451
T	-6452
j4	-6453
o^	-6454
3	-6455
U	-6456
]	-6457
d	-6458
"	-6459
%N	-6460
(Y	-6461
*	-6462
*5	-6463
1	-6464
2{	-6465
6N	-6466
A}	-6467
R5	-6468
bR	-6469
gO	-6470
▁3	-6471
���u	-6472
	-6473
C	-6474
)C	-6475
*c	-6476
7G	-6477
<w	-6478
DG	-6479
H	-6480
Zt	-6481
[	-6482
o	-6483
	-6484
M	-6485
:	-6486
Q	-6487
}	-6488
1;	-6489
9~	-6490
E$	-6491
L	-6492
T.	-6493
l-	-6494
zk	-6495
J	-6496
	-6497
M	-6498
G	-6499
}	-6500
	-6501
&W	-6502
(@	-6503
(~	-6504
+w	-6505
1u	-6506
8	-6507
fO	-6508
hc	-6509
p}	-6510
n	-6511
c	-6512
	-6513
U	-6514
n	-6515
.	-6516
6	-6517
9w	-6518
D-	-6519
D7	-6520
F^	-6521
eJ	-6522
iM	-6523
pV	-6524
���	-6525
>	-6526
	-6527
M	-6528
-	-6529
A	-6530
BC	-6531
DU	-6532
R;	-6533
TC	-6534
]{	-6535
_x	-6536
i#	-6537
v	-6538
|c	-6539
-	-6540
	-6541
g	-6542
	-6543
!.	-6544
0	-6545
4<	-6546
B	-6547
D	-6548
R-	-6549
R	-6550
ZL	-6551
Zm	-6552
#	-6553
	-6554
	-6555
)	-6556
,X	-6557
/s	-6558
9	-6559
=c	-6560
II	-6561
a-	-6562
aQ	-6563
p	-6564
zw	-6565
|	-6566
x	-6567
h	-6568
t	-6569
;	-6570
(W	-6571
2s	-6572
B-	-6573
D	-6574
Eb	-6575
Sy	-6576
i	-6577
▁	-6578
▁1	-6579
	-6580
8	-6581
"	-6582
*C	-6583
3W	-6584
4t	-6585
=n	-6586
B	-6587
B	-6588
Kq	-6589
Ot	-6590
T	-6591
T5	-6592
`f	-6593
a|	-6594
j:	-6595
rf	-6596
~t	-6597
���	-6598
	-6599
	-6600
	-6601
B	-6602
Bn	-6603
Q	-6604
kw	-6605
o_	-6606
_	-6607
	-6608
c	-6609
%J	-6610
)!	-6611
*	-6612
,J	-6613
6u	-6614
LL	-6615
\	-6616
a1	-6617
b	-6618
h	-6619
zX	-6620
G	-6621
$	-6622
(9	-6623
+t	-6624
3;	-6625
R	-6626
Vf	-6627
\|	-6628
]/	-6629
a	-6630
i	-6631
▁	-6632
?	-6633
}	-6634
	-6635
(q	-6636
)#	-6637
*U	-6638
2I	-6639
2q	-6640
3|	-6641
B	-6642
B}	-6643
Ec	-6644
Kr	-6645
W'	-6646
[-	-6647
b	-6648
v@	-6649
���C	-6650
	-6651
	-6652
$	-6653
&x	-6654
)u	-6655
6U	-6656
D}	-6657
E5	-6658
EM	-6659
Fw	-6660
Kx	-6661
N_	-6662
P	-6663
Q	-6664
T	-6665
T	-6666
T	-6667
hU	-6668
p	-6669
▁U	-6670
7�������	-6671
M	-6672
X	-6673
	-6674
	-6675
$8	-6676
%Z	-6677
)	-6678
+_	-6679
00	-6680
A;	-6681
T#	-6682
[H	-6683
d	-6684
dm	-6685
▁8	-6686
L	-6687
	-6688
.	-6689
$	-6690
&S	-6691
,o	-6692
1-	-6693
1l	-6694
7	-6695
?;	-6696
A5	-6697
D	-6698
VJ	-6699
\	-6700
b~	-6701
k`	-6702
▁	-6703
���	-6704
!;	-6705
AU	-6706
E-	-6707
K/	-6708
OL	-6709
Q}	-6710
Zg	-6711
f@	-6712
h	-6713
pl	-6714
r	-6715
	-6716
3>	-6717
B	-6718
DC	-6719
RM	-6720
]	-6721
d-	-6722
kg	-6723
▁G	-6724
#	-6725
=	-6726
	-6727
!	-6728
!U	-6729
)	-6730
*	-6731
1G	-6732
@/	-6733
A	-6734
KY	-6735
K{	-6736
fv	-6737
���	-6738
#	-6739
-	-6740
|	-6741
!x	-6742
)	-6743
*	-6744
2_	-6745
9s	-6746
O<	-6747
T	-6748
e	-6749
h	-6750
n	-6751
"	-6752
)M	-6753
.U	-6754
@:	-6755
BM	-6756
Q	-6757
Sv	-6758
T	-6759
ZI	-6760
]J	-6761
▁-	-6762
"	-6763
'	-6764
)	-6765
*l	-6766
4^	-6767
6	-6768
A7	-6769
O	-6770
SI	-6771
T3	-6772
Yo	-6773
Z^	-6774
pc	-6775
	-6776
	-6777
c	-6778
U	-6779
)b	-6780
*	-6781
1	-6782
2:	-6783
A	-6784
RC	-6785
Z_	-6786
▁C	-6787
	-6788
C	-6789
?	-6790
	-6791
"8	-6792
%X	-6793
&v	-6794
*3	-6795
2`	-6796
H^	-6797
O~	-6798
VF	-6799
Zk	-6800
i	-6801
iU	-6802
t:	-6803
	-6804
	-6805
Q	-6806
%L	-6807
(<	-6808
+J	-6809
AC	-6810
T	-6811
T	-6812
YL	-6813
Z<	-6814
[C	-6815
\5	-6816
a	-6817
b	-6818
d	-6819
e]	-6820
e^	-6821
i	-6822
q8	-6823
rr	-6824
u	-6825
▁5	-6826
	-6827
G	-6828
{	-6829
}	-6830
&{	-6831
(/	-6832
*	-6833
,<	-6834
D	-6835
E|	-6836
T	-6837
Y<	-6838
\U	-6839
f{	-6840
s{	-6841
▁	-6842
���	-6843
-	-6844
s	-6845
	-6846
	-6847
	-6848
!	-6849
%j	-6850
(o	-6851
*	-6852
2P	-6853
78	-6854
@'	-6855
DM	-6856
R=	-6857
W{	-6858
`r	-6859
a	-6860
d~	-6861
h	-6862
om	-6863
zI	-6864
���	-6865
C	-6866
G	-6867
"G	-6868
$	-6869
(>	-6870
)6	-6871
.-	-6872
A#	-6873
HL	-6874
Hx	-6875
V<	-6876
bC	-6877
dG	-6878
k{	-6879
▁=	-6880
	-6881
G	-6882
c	-6883
	-6884
"3	-6885
&>	-6886
E	-6887
S^	-6888
]s	-6889
{	-6890
l	-6891
	-6892
c	-6893
	-6894
C	-6895
"	-6896
"#	-6897
%<	-6898
*	-6899
*G	-6900
3	-6901
?q	-6902
E[	-6903
P2	-6904
S4	-6905
Sj	-6906
VI	-6907
`4	-6908
`L	-6909
ef	-6910
▁c	-6911
	-6912
	-6913
"	-6914
%w	-6915
1	-6916
84	-6917
Q	-6918
T=	-6919
Xt	-6920
`J	-6921
ry	-6922
|C	-6923
2	-6924
	-6925
7	-6926
%y	-6927
*	-6928
5	-6929
;J	-6930
E	-6931
N{	-6932
PX	-6933
u�������	-6934
<	-6935
	-6936
'/	-6937
(4	-6938
(y	-6939
+s	-6940
+x	-6941
,I	-6942
94	-6943
O^	-6944
Q5	-6945
R	-6946
S	-6947
pp	-6948
v:	-6949
[	-6950
^	-6951
	-6952
	-6953
U	-6954
$!	-6955
%g	-6956
%~	-6957
0^	-6958
3	-6959
8{	-6960
9q	-6961
Ws	-6962
b	-6963
er	-6964
���a	-6965
k	-6966
D	-6967
"7	-6968
$.	-6969
)G	-6970
@^	-6971
E	-6972
Eu	-6973
Xk	-6974
e2	-6975
i5	-6976
jj	-6977
v{	-6978
|-	-6979
���	-6980
x	-6981
	-6982
C	-6983
(&	-6984
3u	-6985
6}	-6986
E	-6987
Fk	-6988
F~	-6989
O?	-6990
Q	-6991
Q[	-6992
Y>	-6993
YJ	-6994
a[	-6995
b	-6996
h	-6997
w~	-6998
	-6999
7	-7000
u	-7001
*i	-7002
3	-7003
@	-7004
E	-7005
▁	-7006
	-7007
	-7008
#	-7009
"	-7010
$U	-7011
(Z	-7012
*M	-7013
92	-7014
Q	-7015
S~	-7016
T	-7017
Xr	-7018
l;	-7019
p	-7020
U	-7021
[	-7022
$[	-7023
%I	-7024
,/	-7025
,f	-7026
9?	-7027
;	-7028
A	-7029
A	-7030
Hw	-7031
Ow	-7032
PI	-7033
V+	-7034
e4	-7035
eo	-7036
pG	-7037
▁	-7038
	-7039
y	-7040
#	-7041
	-7042
=	-7043
/w	-7044
7[	-7045
8L	-7046
E	-7047
Ti	-7048
Wq	-7049
a	-7050
}	-7051
	-7052
=	-7053
$	-7054
$C	-7055
5U	-7056
Jr	-7057
O`	-7058
S/	-7059
YI	-7060
C	-7061
M	-7062
C	-7063
"c	-7064
$=	-7065
&I	-7066
)	-7067
*	-7068
1|	-7069
@q	-7070
D=	-7071
Jg	-7072
KZ	-7073
T	-7074
au	-7075
▁	-7076
▁.	-7077
w	-7078
s	-7079
	-7080
(g	-7081
,^	-7082
B7	-7083
Fn	-7084
HW	-7085
T	-7086
T\	-7087
Xz	-7088
d}	-7089
���6	-7090
u	-7091
~	-7092
+'	-7093
+{	-7094
8I	-7095
Ah	-7096
R.	-7097
RU	-7098
]	-7099
b#	-7100
d	-7101
mt	-7102
M	-7103
	-7104
N	-7105
M	-7106
	-7107
!	-7108
,P	-7109
1	-7110
@s	-7111
Bu	-7112
Fv	-7113
Hg	-7114
Jt	-7115
Qc	-7116
]4	-7117
bc	-7118
eI	-7119
qy	-7120
o	-7121
/�	-7122
�������	-7123
	-7124
;	-7125
w	-7126
_	-7127
t	-7128
=	-7129
(O	-7130
)7	-7131
,r	-7132
1	-7133
80	-7134
E.	-7135
F_	-7136
Pt	-7137
Vy	-7138
Z2	-7139
	-7140
I	-7141
f	-7142
!	-7143
".	-7144
(x	-7145
D	-7146
H2	-7147
h=	-7148
	-7149
$7	-7150
(N	-7151
9%	-7152
@<	-7153
A	-7154
H4	-7155
Hj	-7156
KN	-7157
O:	-7158
P0	-7159
Rp	-7160
]y	-7161
i[	-7162
mx	-7163
n>	-7164
||	-7165
	-7166
U	-7167
k	-7168
	-7169
*	-7170
,4	-7171
,Y	-7172
B=	-7173
KW	-7174
SN	-7175
T6	-7176
Zj	-7177
v	-7178
	-7179
	-7180
=	-7181
U	-7182
[	-7183
[	-7184
&V	-7185
'4	-7186
'N	-7187
,s	-7188
1	-7189
5C	-7190
7	-7191
@w	-7192
b=	-7193
dM	-7194
u	-7195
z~	-7196
.	-7197
U	-7198
*[	-7199
+	-7200
+N	-7201
?y	-7202
E	-7203
K4	-7204
T	-7205
a.	-7206
lc	-7207
mJ	-7208
|	-7209
▁6	-7210
	-7211
	-7212
&J	-7213
9{	-7214
Dc	-7215
R#	-7216
T	-7217
^<	-7218
b	-7219
l[	-7220
nr	-7221
q	-7222
{	-7223
�������	-7224
c	-7225
&L	-7226
(s	-7227
/	-7228
A	-7229
PP	-7230
Qp	-7231
R	-7232
Rc	-7233
\	-7234
a!	-7235
aC	-7236
eg	-7237
zv	-7238
|;	-7239
▁u	-7240
���)	-7241
c	-7242
M	-7243
	-7244
-	-7245
C	-7246
	-7247
	-7248
%W	-7249
(	-7250
,w	-7251
16	-7252
?r	-7253
A-	-7254
HX	-7255
QC	-7256
_k	-7257
a	-7258
b	-7259
d	-7260
ek	-7261
mX	-7262
yg	-7263
6	-7264
u	-7265
	-7266
*	-7267
9	-7268
9S	-7269
@J	-7270
B[	-7271
D.	-7272
Vs	-7273
]I	-7274
b[	-7275
ej	-7276
e{	-7277
i	-7278
▁7	-7279
j	-7280
	-7281
"1	-7282
&	-7283
'~	-7284
/g	-7285
24	-7286
5-	-7287
5u	-7288
9f	-7289
Q#	-7290
T!	-7291
V4	-7292
d.	-7293
d6	-7294
h	-7295
h.	-7296
l	-7297
|	-7298
▁M	-7299
G	-7300
6	-7301
#	-7302
$-	-7303
%f	-7304
&s	-7305
(k	-7306
2W	-7307
5?	-7308
Ov	-7309
PY	-7310
Tu	-7311
b.	-7312
d	-7313
|u	-7314
I	-7315
	-7316
	-7317
+4	-7318
,0	-7319
2Y	-7320
9y	-7321
@y	-7322
D3	-7323
Ei	-7324
OJ	-7325
P<	-7326
Q	-7327
\M	-7328
b	-7329
l	-7330
qv	-7331
u	-7332
	-7333
3	-7334
%Y	-7335
)p	-7336
*	-7337
2r	-7338
9g	-7339
:0	-7340
H`	-7341
K`	-7342
TA	-7343
ZJ	-7344
\	-7345
^o	-7346
d[	-7347
w{	-7348
|	-7349
	-7350
	-7351
t	-7352
	-7353
$	-7354
2o	-7355
5c	-7356
8f	-7357
=	-7358
P:	-7359
bp	-7360
▁i	-7361
3	-7362
	-7363
	-7364
"M	-7365
#G	-7366
%t	-7367
'L	-7368
't	-7369
,	-7370
5	-7371
?8	-7372
D	-7373
Pv	-7374
▁	-7375
G	-7376
3	-7377
E	-7378
	-7379
=	-7380
G	-7381
"	-7382
"	-7383
+@	-7384
/<	-7385
1U	-7386
DA	-7387
F>	-7388
H~	-7389
S]	-7390
Vq	-7391
\R	-7392
b	-7393
h	-7394
lU	-7395
p	-7396
zY	-7397
zg	-7398
	-7399
.	-7400
[	-7401
4	-7402
J	-7403
X	-7404
%o	-7405
(r	-7406
)i	-7407
*	-7408
,{	-7409
9r	-7410
:t	-7411
@j	-7412
D	-7413
D[	-7414
Ff	-7415
Lg	-7416
Py	-7417
Q=	-7418
wm	-7419
i	-7420
	-7421
+`	-7422
18	-7423
F<	-7424
H>	-7425
V^	-7426
Vg	-7427
WJ	-7428
Zy	-7429
h	-7430
<	-7431
=	-7432
'>	-7433
'_	-7434
*#	-7435
@k	-7436
D	-7437
Ks	-7438
L0	-7439
O{	-7440
T7	-7441
z<	-7442
m	-7443
	-7444
	-7445
'J	-7446
2x	-7447
Di	-7448
F&	-7449
\	-7450
bM	-7451
hM	-7452
rI	-7453
	-7454
'	-7455
2f	-7456
5G	-7457
@`	-7458
L&	-7459
Q	-7460
R|	-7461
Tl	-7462
p#	-7463
pi	-7464
w/	-7465
���	-7466
c	-7467
	-7468
=	-7469
3	-7470
"	-7471
(	-7472
)B	-7473
1	-7474
5l	-7475
;4	-7476
E	-7477
F:	-7478
FY	-7479
H:	-7480
L`	-7481
Qi	-7482
S>	-7483
S_	-7484
Wj	-7485
b	-7486
em	-7487
>	-7488
e	-7489
7	-7490
"	-7491
$	-7492
%/	-7493
(j	-7494
*	-7495
5	-7496
9z	-7497
B.	-7498
FN	-7499
Kn	-7500
TG	-7501
p	-7502
|#	-7503
	-7504
	-7505
	-7506
"=	-7507
*	-7508
5M	-7509
8^	-7510
P_	-7511
R	-7512
T	-7513
du	-7514
▁	-7515
▁	-7516
▁[	-7517
/	-7518
U	-7519
	-7520
.	-7521
$c	-7522
':	-7523
2J	-7524
8J	-7525
D	-7526
Hy	-7527
K	-7528
Pz	-7529
Q!	-7530
V/	-7531
a	-7532
ai	-7533
jJ	-7534
▁	-7535
_	-7536
3	-7537
.	-7538
U	-7539
+q	-7540
1	-7541
1	-7542
5	-7543
7u	-7544
8	-7545
E6	-7546
K%	-7547
Nq	-7548
Q	-7549
Sm	-7550
Tc	-7551
\	-7552
]f	-7553
kt	-7554
nY	-7555
n	-7556
ox	-7557
▁	-7558
!	-7559
*R	-7560
+Y	-7561
,W	-7562
9	-7563
;I	-7564
D	-7565
Fr	-7566
Hv	-7567
Ke	-7568
QG	-7569
V{	-7570
]j	-7571
a#	-7572
d	-7573
l7	-7574
w>	-7575
#	-7576
`	-7577
m	-7578
"u	-7579
(w	-7580
({	-7581
0q	-7582
5	-7583
8`	-7584
@Z	-7585
Q\	-7586
T	-7587
X<	-7588
b-	-7589
h	-7590
hG	-7591
&	-7592
%v	-7593
*!	-7594
+v	-7595
9I	-7596
?/	-7597
?s	-7598
A	-7599
Bc	-7600
C}	-7601
Fq	-7602
F{	-7603
N>	-7604
]r	-7605
a7	-7606
d	-7607
▁!	-7608
U	-7609
	-7610
	-7611
%z	-7612
*7	-7613
*=	-7614
?_	-7615
Hf	-7616
Hr	-7617
KI	-7618
NW	-7619
TR	-7620
XJ	-7621
a	-7622
eW	-7623
h#	-7624
sm	-7625
�	-7626
u	-7627
v	-7628
$	-7629
8j	-7630
E	-7631
M_	-7632
X^	-7633
b	-7634
b$	-7635
bG	-7636
g{	-7637
p	-7638
l	-7639
\	-7640
)	-7641
+I	-7642
8_	-7643
A[	-7644
Ox	-7645
Q	-7646
X0	-7647
Z0	-7648
bl	-7649
d	-7650
h	-7651
h	-7652
pB	-7653
t>	-7654
tq	-7655
|=	-7656
.	-7657
i	-7658
%>	-7659
,k	-7660
2<	-7661
2w	-7662
5	-7663
D#	-7664
Kz	-7665
Nk	-7666
P>	-7667
R	-7668
R	-7669
Z{	-7670
\	-7671
dc	-7672
dl	-7673
fq	-7674
n	-7675
U	-7676
(v	-7677
8Y	-7678
DB	-7679
FJ	-7680
H/	-7681
NY	-7682
Z>	-7683
Zq	-7684
a6	-7685
nj	-7686
yI	-7687
}I	-7688
	-7689
%r	-7690
'q	-7691
'r	-7692
3-	-7693
5	-7694
@{	-7695
A	-7696
C0	-7697
E	-7698
Fo	-7699
O>	-7700
V:	-7701
a	-7702
	-7703
.	-7704
_	-7705
>	-7706
	-7707
6	-7708
$6	-7709
(]	-7710
(`	-7711
*1	-7712
7	-7713
8o	-7714
Au	-7715
H_	-7716
K0	-7717
\6	-7718
b|	-7719
nk	-7720
ph	-7721
zJ	-7722
m	-7723
	-7724
	-7725
	-7726
!=	-7727
))	-7728
+m	-7729
+r	-7730
@Y	-7731
CG	-7732
Hs	-7733
P/	-7734
Pr	-7735
R	-7736
S0	-7737
Td	-7738
a	-7739
p	-7740
p.	-7741
	-7742
6	-7743
<	-7744
"	-7745
%k	-7746
&j	-7747
,`	-7748
,y	-7749
2]	-7750
;O	-7751
@L	-7752
@_	-7753
Du	-7754
Kj	-7755
es	-7756
l	-7757
n_	-7758
▁	-7759
~	-7760
!G	-7761
%	-7762
*u	-7763
+	-7764
2	-7765
8k	-7766
?}	-7767
D5	-7768
Pf	-7769
Zf	-7770
b	-7771
e>	-7772
n}	-7773
	-7774
	-7775
	-7776
]	-7777
	-7778
"	-7779
"[	-7780
$	-7781
%	-7782
%s	-7783
2/	-7784
9j	-7785
Z4	-7786
bU	-7787
n/	-7788
�	-7789
���	-7790
p�������	-7791
G	-7792
	-7793
	-7794
	-7795
u	-7796
&w	-7797
1	-7798
1	-7799
2v	-7800
9	-7801
?0	-7802
C	-7803
H]	-7804
RG	-7805
Z]	-7806
aE	-7807
eq	-7808
h	-7809
ng	-7810
p-	-7811
pM	-7812
	-7813
%4	-7814
%_	-7815
&X	-7816
(f	-7817
*\	-7818
,~	-7819
D	-7820
Hk	-7821
P~	-7822
Sz	-7823
T	-7824
Zs	-7825
h	-7826
h3	-7827
�	-7828
	-7829
	-7830
#	-7831
&z	-7832
/q	-7833
1	-7834
7	-7835
7.	-7836
;z	-7837
Ky	-7838
Lo	-7839
Oo	-7840
nJ	-7841
	-7842
f	-7843
$	-7844
'0	-7845
<J	-7846
Fg	-7847
Ho	-7848
Ri	-7849
Wt	-7850
X~	-7851
cM	-7852
d	-7853
h	-7854
	-7855
	-7856
	-7857
l	-7858
"i	-7859
&]	-7860
'?	-7861
1M	-7862
AA	-7863
H0	-7864
Vw	-7865
yo	-7866
c	-7867
l	-7868
u	-7869
&e	-7870
'k	-7871
+9	-7872
+O	-7873
;}	-7874
B\	-7875
FV	-7876
Ir	-7877
N:	-7878
WL	-7879
a	-7880
v~	-7881
▁	-7882
5	-7883
z	-7884
~	-7885
G	-7886
!	-7887
!	-7888
$	-7889
%e	-7890
&g	-7891
/`	-7892
/t	-7893
Qu	-7894
R	-7895
\	-7896
jq	-7897
pC	-7898
|	-7899
6	-7900
]	-7901
"E	-7902
.	-7903
2	-7904
D	-7905
Ok	-7906
WY	-7907
Zo	-7908
Zv	-7909
	-7910
G	-7911
	-7912
%`	-7913
&`	-7914
*A	-7915
4v	-7916
73	-7917
?`	-7918
P`	-7919
Q$	-7920
R	-7921
a	-7922
d3	-7923
tr	-7924
▁	-7925
!l	-7926
%S	-7927
(:	-7928
98	-7929
B	-7930
I0	-7931
Pq	-7932
Q	-7933
V>	-7934
^x	-7935
ft	-7936
h	-7937
p	-7938
▁E	-7939
�������	-7940
	-7941
G	-7942
%@	-7943
(2	-7944
*6	-7945
9,	-7946
;~	-7947
O@	-7948
V	-7949
Vz	-7950
V~	-7951
Wy	-7952
Z`	-7953
\	-7954
d	-7955
mr	-7956
nX	-7957
�	-7958
���T	-7959
i	-7960
6	-7961
g	-7962
	-7963
$	-7964
&Y	-7965
(z	-7966
)	-7967
15	-7968
B	-7969
Kf	-7970
Oq	-7971
Oy	-7972
U	-7973
Ze	-7974
a	-7975
fk	-7976
pA	-7977
a�������	-7978
J	-7979
	-7980
l	-7981
=	-7982
	-7983
&n	-7984
B6	-7985
H'	-7986
K>	-7987
Q	-7988
Z	-7989
Z~	-7990
a	-7991
j0	-7992
jt	-7993
|l	-7994
	-7995
z	-7996
	-7997
[	-7998
#c	-7999
&r	-8000
&y	-8001
*	-8002
+	-8003
B	-8004
E	-8005
S8	-8006
U-	-8007
Zz	-8008
p	-8009
6	-8010
3	-8011
	-8012
"	-8013
#	-8014
+~	-8015
1A	-8016
F/	-8017
I4	-8018
LJ	-8019
Ny	-8020
P4	-8021
R	-8022
Ru	-8023
]~	-8024
aA	-8025
{<	-8026
;;�	-8027
b�������	-8028
M	-8029
	-8030
$i	-8031
&<	-8032
*	-8033
,_	-8034
9k	-8035
@x	-8036
Rl	-8037
V8	-8038
VL	-8039
Ve	-8040
X`	-8041
d	-8042
m	-8043
|	-8044
h�������	-8045
[	-8046
.	-8047
.M	-8048
;W	-8049
El	-8050
He	-8051
K~	-8052
O_	-8053
T	-8054
b	-8055
b	-8056
sy	-8057
"	-8058
7-	-8059
Ai	-8060
I<	-8061
Qh	-8062
R	-8063
R	-8064
YY	-8065
\u	-8066
tJ	-8067
#	-8068
	-8069
)	-8070
>_	-8071
a	-8072
b3	-8073
ko	-8074
{v	-8075
|U	-8076
c	-8077
+	-8078
&;	-8079
'w	-8080
)$	-8081
Fj	-8082
G	-8083
JJ	-8084
Nz	-8085
Pg	-8086
Z8	-8087
[	-8088
\=	-8089
]z	-8090
|	-8091
?�������	-8092
	-8093
	-8094
X	-8095
s	-8096
5	-8097
)3	-8098
>4	-8099
H+	-8100
K:	-8101
Lx	-8102
Q3	-8103
R	-8104
R3	-8105
R6	-8106
f:	-8107
▁l	-8108
)�������	-8109
[	-8110
	-8111
!E	-8112
G	-8113
Gm	-8114
P	-8115
T	-8116
T	-8117
V9	-8118
V@	-8119
Z/	-8120
Z:	-8121
\	-8122
^/	-8123
fg	-8124
i	-8125
qm	-8126
sv	-8127
c	-8128
$u	-8129
%;	-8130
+W	-8131
C	-8132
Q	-8133
Qd	-8134
UM	-8135
b	-8136
or	-8137
qJ	-8138
|i	-8139
=	-8140
u	-8141
#	-8142
$#	-8143
&_	-8144
('	-8145
,v	-8146
HO	-8147
Om	-8148
Pe	-8149
TQ	-8150
\#	-8151
^t	-8152
jg	-8153
s0	-8154
{y	-8155
w	-8156
;	-8157
D	-8158
$	-8159
9J	-8160
@~	-8161
T1	-8162
Wv	-8163
bA	-8164
p	-8165
|[	-8166
	-8167
C	-8168
!	-8169
&	-8170
)	-8171
)"	-8172
*	-8173
7C	-8174
FK	-8175
Vv	-8176
Yr	-8177
h[	-8178
hu	-8179
nv	-8180
	-8181
-	-8182
$5	-8183
2,	-8184
2~	-8185
53	-8186
E	-8187
G}	-8188
VK	-8189
bD	-8190
e/	-8191
B	-8192
	-8193
x	-8194
	-8195
7M	-8196
9	-8197
HS	-8198
Q	-8199
QB	-8200
U;	-8201
\i	-8202
]0	-8203
bu	-8204
nq	-8205
n{	-8206
|.	-8207
}c	-8208
6	-8209
"	-8210
$	-8211
(	-8212
,:	-8213
2X	-8214
?	-8215
Dl	-8216
EB	-8217
F	-8218
I	-8219
Lt	-8220
Pk	-8221
\d	-8222
b	-8223
b1	-8224
ey	-8225
p	-8226
s	-8227
▁	-8228
��x��	-8229
W	-8230
}	-8231
	-8232
(S	-8233
H	-8234
Nj	-8235
ZW	-8236
Zw	-8237
iC	-8238
|M	-8239
o	-8240
.	-8241
8	-8242
;	-8243
3	-8244
)A	-8245
+f	-8246
2K	-8247
9X	-8248
V]	-8249
Z}	-8250
n@	-8251
q4	-8252
_	-8253
	-8254
.	-8255
@	-8256
5	-8257
$	-8258
6	-8259
l	-8260
'v	-8261
-z	-8262
0J	-8263
2y	-8264
7	-8265
>t	-8266
>{	-8267
F4	-8268
Lw	-8269
NJ	-8270
N}	-8271
[M	-8272
d	-8273
fy	-8274
ow	-8275
▁"	-8276
	-8277
(m	-8278
)	-8279
,	-8280
-}	-8281
/x	-8282
?z	-8283
A	-8284
D	-8285
VO	-8286
d	-8287
fX	-8288
E�������	-8289
	-8290
	-8291
';	-8292
'<	-8293
(K	-8294
+P	-8295
+y	-8296
=	-8297
F]	-8298
Q	-8299
R!	-8300
R\	-8301
W:	-8302
Yf	-8303
h	-8304
ny	-8305
p"	-8306
~w	-8307
��;��	-8308
	-8309
	-8310
	-8311
	-8312
[	-8313
$3	-8314
%]	-8315
)	-8316
**	-8317
5	-8318
68	-8319
=	-8320
AM	-8321
D	-8322
Hq	-8323
Hz	-8324
U	-8325
X_	-8326
di	-8327
fr	-8328
	-8329
*	-8330
7	-8331
9L	-8332
@o	-8333
R	-8334
R[	-8335
a	-8336
jI	-8337
u	-8338
|	-8339
j	-8340
▁	-8341
	-8342
&,	-8343
>z	-8344
A.	-8345
G	-8346
H,	-8347
PL	-8348
e,	-8349
ew	-8350
jo	-8351
ns	-8352
r<	-8353
{q	-8354
▁B	-8355
!	-8356
	-8357
$	-8358
$	-8359
$B	-8360
&q	-8361
/J	-8362
2k	-8363
5#	-8364
>0	-8365
@4	-8366
D1	-8367
E1	-8368
N]	-8369
T	-8370
TB	-8371
V,	-8372
ZC	-8373
ZS	-8374
`y	-8375
fJ	-8376
hC	-8377
hi	-8378
	-8379
l	-8380
w	-8381
'S	-8382
*Q	-8383
9W	-8384
HP	-8385
K+	-8386
TE	-8387
d	-8388
d#	-8389
pU	-8390
rk	-8391
8	-8392
q	-8393
y	-8394
▁	-8395
~	-8396
	-8397
	-8398
	-8399
C	-8400
!#	-8401
-	-8402
7	-8403
D\	-8404
H	-8405
HN	-8406
H{	-8407
f^	-8408
h	-8409
m0	-8410
▁	-8411
���E	-8412
	-8413
	-8414
%2	-8415
/k	-8416
6C	-8417
9]	-8418
@?	-8419
RA	-8420
Rb	-8421
T)	-8422
s~	-8423
u=	-8424
v	-8425
.�������	-8426
	-8427
c	-8428
	-8429
a	-8430
"	-8431
%n	-8432
(	-8433
(?	-8434
7	-8435
HF	-8436
Ik	-8437
T	-8438
tg	-8439
��5��	-8440
=	-8441
l	-8442
l	-8443
.	-8444
6l	-8445
7l	-8446
D	-8447
W4	-8448
t`	-8449
|p	-8450
3	-8451
"	-8452
6	-8453
8@	-8454
:k	-8455
;Y	-8456
XL	-8457
d=	-8458
i=	-8459
n~	-8460
w	-8461
!	-8462
	-8463
	-8464
5[	-8465
SW	-8466
d	-8467
dp	-8468
eP	-8469
g<	-8470
sX	-8471
u_	-8472
�7���	-8473
��o��	-8474
	-8475
'	-8476
r	-8477
.	-8478
"l	-8479
%,	-8480
%q	-8481
)	-8482
+?	-8483
8F	-8484
9}	-8485
B5	-8486
G[	-8487
Y^	-8488
Y~	-8489
u	-8490
|	-8491
|	-8492
����	-8493
	-8494
	-8495
c	-8496
"*	-8497
#	-8498
%O	-8499
%}	-8500
)*	-8501
/>	-8502
2z	-8503
3M	-8504
5	-8505
6[	-8506
E	-8507
Km	-8508
Qb	-8509
VP	-8510
Vm	-8511
W~	-8512
\	-8513
h	-8514
rJ	-8515
uM	-8516
0	-8517
�������	-8518
	-8519
$	-8520
(	-8521
(P	-8522
.	-8523
E)	-8524
Yz	-8525
\	-8526
_v	-8527
b	-8528
d	-8529
e~	-8530
sw	-8531
	-8532
y	-8533
S	-8534
l	-8535
"	-8536
/{	-8537
4x	-8538
:{	-8539
R	-8540
\	-8541
\l	-8542
`I	-8543
n=	-8544
|	-8545
|	-8546
�	-8547
	-8548
	-8549
!	-8550
.	-8551
/I	-8552
1C	-8553
8g	-8554
9_	-8555
:w	-8556
@]	-8557
Ac	-8558
Bi	-8559
Fc	-8560
RB	-8561
Uc	-8562
Xy	-8563
s}	-8564
vy	-8565
	-8566
%+	-8567
(,	-8568
1	-8569
2m	-8570
4j	-8571
6	-8572
;`	-8573
@e	-8574
O'	-8575
Z+	-8576
^]	-8577
^k	-8578
a3	-8579
i	-8580
vj	-8581
��|��	-8582
	-8583
k	-8584
J	-8585
&k	-8586
.S	-8587
1#	-8588
33	-8589
QD	-8590
R	-8591
U	-8592
Y:	-8593
ZN	-8594
\	-8595
nP	-8596
i�������	-8597
	-8598
!	-8599
7	-8600
7h	-8601
@t	-8602
H	-8603
Q*	-8604
R)	-8605
S+	-8606
X4	-8607
Yj	-8608
nz	-8609
����	-8610
8	-8611
	-8612
[	-8613
	-8614
q	-8615
	-8616
?	-8617
F	-8618
}	-8619
	-8620
0	-8621
	-8622
#	-8623
-c	-8624
H9	-8625
W@	-8626
Ww	-8627
Xw	-8628
n:	-8629
ro	-8630
▁	-8631
	-8632
	-8633
d	-8634
k	-8635
6	-8636
"p	-8637
%9	-8638
%x	-8639
&	-8640
(}	-8641
;^	-8642
A3	-8643
C-	-8644
M	-8645
W`	-8646
\	-8647
aT	-8648
b5	-8649
m~	-8650
rj	-8651
rz	-8652
a�	-8653
	-8654
G	-8655
I	-8656
v	-8657
	-8658
O	-8659
?	-8660
"5	-8661
$	-8662
'y	-8663
2}	-8664
;]	-8665
@f	-8666
DE	-8667
H?	-8668
\	-8669
h	-8670
tt	-8671
{z	-8672
��7��	-8673
,O	-8674
.A	-8675
5	-8676
<k	-8677
>;	-8678
R	-8679
[	-8680
3	-8681
:	-8682
	-8683
=	-8684
$d	-8685
$l	-8686
(	-8687
<L	-8688
B	-8689
H	-8690
Z9	-8691
ZF	-8692
^0	-8693
gL	-8694
nf	-8695
p	-8696
sI	-8697
{J	-8698
▁d	-8699
��v��	-8700
G�������	-8701
z	-8702
N	-8703
#	-8704
']	-8705
(c	-8706
>y	-8707
CU	-8708
GU	-8709
K8	-8710
Po	-8711
tz	-8712
/N	-8713
1[	-8714
6.	-8715
6G	-8716
7}	-8717
<y	-8718
A	-8719
A	-8720
Dd	-8721
D|	-8722
KO	-8723
ZP	-8724
^4	-8725
_]	-8726
i	-8727
jy	-8728
p	-8729
Q0�	-8730
N	-8731
O	-8732
&/	-8733
&m	-8734
&o	-8735
*	-8736
++	-8737
,q	-8738
9F	-8739
Io	-8740
\	-8741
\	-8742
jS	-8743
p	-8744
{4	-8745
a0�	-8746
��[��	-8747
M	-8748
y	-8749
	-8750
&'	-8751
,'	-8752
.	-8753
0x	-8754
T"	-8755
X{	-8756
Yk	-8757
`q	-8758
hE	-8759
hb	-8760
i6	-8761
nN	-8762
pu	-8763
h4�	-8764
q	-8765
w	-8766
*B	-8767
A=	-8768
C3	-8769
J:	-8770
K	-8771
KF	-8772
\	-8773
_L	-8774
e'	-8775
l	-8776
{L	-8777
▁)	-8778
	-8779
	-8780
	-8781
$E	-8782
/o	-8783
1	-8784
13	-8785
2F	-8786
9`	-8787
If	-8788
K@	-8789
Q	-8790
R	-8791
T	-8792
h7	-8793
U	-8794
(	-8795
(	-8796
2?	-8797
;	-8798
>L	-8799
C	-8800
CM	-8801
Jf	-8802
V%	-8803
Yy	-8804
\	-8805
e	-8806
ec	-8807
h	-8808
i	-8809
tL	-8810
tj	-8811
▁D	-8812
����	-8813
���x�	-8814
	-8815
`	-8816
	-8817
!	-8818
!M	-8819
"B	-8820
+z	-8821
-	-8822
.	-8823
/r	-8824
>o	-8825
@z	-8826
C	-8827
R	-8828
X	-8829
Z	-8830
Z	-8831
e8	-8832
i7	-8833
s'	-8834
s4	-8835
u	-8836
u?	-8837
▁b	-8838
�V���	-8839
����	-8840
����	-8841
��Q��	-8842
\�������	-8843
	-8844
$	-8845
>k	-8846
>q	-8847
I~	-8848
Nw	-8849
Yg	-8850
Z	-8851
_j	-8852
iG	-8853
n'	-8854
to	-8855
ym	-8856
��b��	-8857
��n��	-8858
5�������	-8859
	-8860
	-8861
q	-8862
	-8863
	-8864
}	-8865
!c	-8866
2'	-8867
2j	-8868
5	-8869
Cc	-8870
Ix	-8871
Nr	-8872
Qa	-8873
V	-8874
[	-8875
\	-8876
l=	-8877
u	-8878
|	-8879
��F��	-8880
��V��	-8881
	-8882
:	-8883
E	-8884
(;	-8885
.	-8886
0g	-8887
;m	-8888
NF	-8889
P,	-8890
R	-8891
]8	-8892
kL	-8893
l	-8894
n8	-8895
u	-8896
|	-8897
��G��	-8898
��h��	-8899
*�������	-8900
6	-8901
}	-8902
X	-8903
3	-8904
0y	-8905
D	-8906
V	-8907
W>	-8908
dU	-8909
e_	-8910
s,	-8911
s]	-8912
vf	-8913
w`	-8914
����	-8915
��w��	-8916
	-8917
{	-8918
1	-8919
-6	-8920
4X	-8921
A	-8922
C8	-8923
CC	-8924
H&	-8925
H;	-8926
Of	-8927
R	-8928
TT	-8929
cU	-8930
p	-8931
rL	-8932
|	-8933
Q�������	-8934
	-8935
3	-8936
U	-8937
	-8938
#	-8939
!-	-8940
$	-8941
$*	-8942
?g	-8943
K	-8944
S'	-8945
S}	-8946
^	-8947
nM	-8948
r~	-8949
t<	-8950
vJ	-8951
�O���	-8952
[�������	-8953
	-8954
$	-8955
)d	-8956
+8	-8957
0X	-8958
58	-8959
7	-8960
>`	-8961
E	-8962
^y	-8963
^z	-8964
_o	-8965
eM	-8966
k8	-8967
n	-8968
t~	-8969
|6	-8970
|G	-8971
	-8972
+	-8973
"6	-8974
.	-8975
7	-8976
7c	-8977
9@	-8978
D6	-8979
R	-8980
YN	-8981
i	-8982
i	-8983
}	-8984
	-8985
G	-8986
2+	-8987
E	-8988
K&	-8989
WI	-8990
g:	-8991
i	-8992
i3	-8993
jf	-8994
p1�	-8995
D�������	-8996
	-8997
	-8998
*	-8999
.	-9000
17	-9001
9V	-9002
9o	-9003
C[	-9004
Fy	-9005
K2	-9006
R	-9007
YS	-9008
Y_	-9009
`o	-9010
d	-9011
eG	-9012
p;	-9013
sf	-9014
|	-9015
▁Q	-9016
����	-9017
	-9018
	-9019
l	-9020
	-9021
	-9022
@+	-9023
Iy	-9024
Jy	-9025
PV	-9026
Yq	-9027
]m	-9028
p	-9029
~o	-9030
A�������	-9031
	-9032
q	-9033
	-9034
l	-9035
G	-9036
(V	-9037
)	-9038
7U	-9039
9	-9040
R	-9041
RQ	-9042
\h	-9043
j`	-9044
n?	-9045
p	-9046
p	-9047
rq	-9048
uC	-9049
|	-9050
�^���	-9051
��=��	-9052
`	-9053
z	-9054
3	-9055
6	-9056
%m	-9057
/z	-9058
4:	-9059
<{	-9060
F,	-9061
QQ	-9062
Y{	-9063
\E	-9064
u	-9065
*�J	-9066
�������	-9067
6	-9068
-	-9069
H	-9070
	-9071
[	-9072
!5	-9073
.	-9074
/?	-9075
A	-9076
A1	-9077
Fz	-9078
IX	-9079
Tb	-9080
h$	-9081
i$	-9082
jm	-9083
t{	-9084
��Y��	-9085
▁�������	-9086
	-9087
#=	-9088
&}	-9089
4`	-9090
8	-9091
A	-9092
B	-9093
F}	-9094
F	-9095
NX	-9096
U	-9097
Y@	-9098
Z[	-9099
d5	-9100
..�	-9101
��9��	-9102
"	-9103
	-9104
	-9105
g	-9106
	-9107
-	-9108
!	-9109
,m	-9110
<t	-9111
?k	-9112
B	-9113
D	-9114
F+	-9115
Gl	-9116
����	-9117
��/��	-9118
��1��	-9119
��J��	-9120
	-9121
L	-9122
""	-9123
'@	-9124
9e	-9125
=	-9126
D	-9127
HV	-9128
K-	-9129
P%	-9130
S?	-9131
\G	-9132
^g	-9133
b	-9134
js	-9135
�w���	-9136
��z��	-9137
6�������	-9138
!	-9139
0I	-9140
>]	-9141
B	-9142
C	-9143
E	-9144
Fm	-9145
K;	-9146
MM	-9147
U	-9148
_m	-9149
`	-9150
c	-9151
h)	-9152
ul	-9153
����	-9154
����	-9155
U	-9156
	-9157
&3	-9158
4w	-9159
D"	-9160
FL	-9161
H	-9162
H-	-9163
J<	-9164
OI	-9165
Wm	-9166
Y+	-9167
\3	-9168
`k	-9169
h"	-9170
i.	-9171
67�	-9172
ac�	-9173
�������	-9174
;	-9175
	-9176
	-9177
%G	-9178
&+	-9179
&Z	-9180
>f	-9181
>w	-9182
Q7	-9183
i	-9184
jr	-9185
p	-9186
zz	-9187
|	-9188
1	-9189
d	-9190
	-9191
$R	-9192
%V	-9193
&2	-9194
,	-9195
;@	-9196
=	-9197
C	-9198
S@	-9199
U}	-9200
X8	-9201
[3	-9202
_y	-9203
`v	-9204
i	-9205
��f��	-9206
l	-9207
n	-9208
l	-9209
	-9210
*b	-9211
,@	-9212
BA	-9213
D	-9214
D	-9215
D)	-9216
^L	-9217
`X	-9218
c	-9219
{~	-9220
\�	-9221
��N��	-9222
��O��	-9223
�������	-9224
y	-9225
	-9226
	-9227
%	-9228
&4	-9229
/m	-9230
2G	-9231
<s	-9232
>g	-9233
Hm	-9234
U#	-9235
YK	-9236
ha	-9237
jw	-9238
{}	-9239
����	-9240
��_��	-9241
��{��	-9242
1	-9243
	-9244
	-9245
	-9246
.6	-9247
0v	-9248
2	-9249
9'	-9250
B	-9251
K]	-9252
N4	-9253
Sc	-9254
W?	-9255
ff	-9256
i	-9257
▁|	-9258
��?��	-9259
��p��	-9260
���g�	-9261
�������	-9262
Z	-9263
	-9264
7	-9265
<x	-9266
F	-9267
Q	-9268
Se	-9269
^:	-9270
^X	-9271
k:	-9272
pb	-9273
r@	-9274
a8�	-9275
��*��	-9276
����	-9277
����	-9278
'	-9279
M	-9280
{	-9281
.	-9282
l	-9283
	-9284
((	-9285
I,	-9286
N8	-9287
Nv	-9288
P	-9289
_4	-9290
i	-9291
uG	-9292
|7	-9293
^�	-9294
?�	-9295
����	-9296
����	-9297
��`��	-9298
���w�	-9299
G	-9300
	-9301
#	-9302
	-9303
&#	-9304
-	-9305
9n	-9306
?]	-9307
B)	-9308
O]	-9309
Q"	-9310
T	-9311
Xo	-9312
\C	-9313
^Y	-9314
`/	-9315
`w	-9316
|!	-9317
����	-9318
Jx	-9319
WK	-9320
Xq	-9321
^q	-9322
b!	-9323
go	-9324
i	-9325
u#	-9326
|A	-9327
{�{	-9328
��3��	-9329
���G�	-9330
���M�	-9331
4	-9332
h	-9333
c	-9334
5	-9335
&@	-9336
9Z	-9337
B	-9338
E	-9339
H8	-9340
H@	-9341
L]	-9342
P}	-9343
Q	-9344
S;	-9345
We	-9346
Wf	-9347
`z	-9348
G�	-9349
��l��	-9350
��t��	-9351
T�������	-9352
@	-9353
$	-9354
l	-9355
&%	-9356
(e	-9357
-M	-9358
7#	-9359
96	-9360
>v	-9361
?J	-9362
Bl	-9363
F	-9364
H}	-9365
J0	-9366
O8	-9367
Os	-9368
Rd	-9369
Y}	-9370
[	-9371
_w	-9372
jv	-9373
m	-9374
����	-9375
A	-9376
	-9377
	-9378
!	-9379
1	-9380
	-9381
i	-9382
$)	-9383
(#	-9384
.8	-9385
<g	-9386
?X	-9387
C#	-9388
D*	-9389
EE	-9390
U3	-9391
d	-9392
j]	-9393
p5	-9394
u;	-9395
|	-9396
[[�	-9397
��k��	-9398
=�������	-9399
)	-9400
	-9401
Y	-9402
r	-9403
.	-9404
A	-9405
Aa	-9406
H7	-9407
I/	-9408
_:	-9409
b	-9410
f	-9411
k,	-9412
u6	-9413
\\�	-9414
v�w	-9415
���3�	-9416
���N�	-9417
4	-9418
	-9419
5	-9420
!6	-9421
(8	-9422
.	-9423
=	-9424
A6	-9425
HK	-9426
Q)	-9427
Th	-9428
VG	-9429
\	-9430
\7	-9431
\B	-9432
yy	-9433
{0	-9434
|	-9435
0�	-9436
'�	-9437
��#��	-9438
��(��	-9439
��@��	-9440
�������	-9441
n	-9442
+	-9443
	-9444
1	-9445
*)	-9446
.u	-9447
2%	-9448
2@	-9449
35	-9450
93	-9451
:r	-9452
>x	-9453
Al	-9454
Iq	-9455
Ne	-9456
T$	-9457
X/	-9458
ZZ	-9459
`t	-9460
c	-9461
fo	-9462
gt	-9463
pD	-9464
▁h	-9465
o�	-9466
�	-9467
����	-9468
����	-9469
��E��	-9470
��d��	-9471
��u��	-9472
���W�	-9473
d�������	-9474
	-9475
	-9476
	-9477
	-9478
K	-9479
(U	-9480
>=	-9481
Jv	-9482
Or	-9483
Oz	-9484
^r	-9485
dC	-9486
fW	-9487
jY	-9488
p	-9489
{/	-9490
4	-9491
|t�	-9492
��T��	-9493
_�������	-9494
w	-9495
]	-9496
!	-9497
")	-9498
&	-9499
&	-9500
*	-9501
-8	-9502
.[	-9503
Ig	-9504
Lq	-9505
MG	-9506
R1	-9507
U[	-9508
p[	-9509
q~	-9510
g	-9511
�o	-9512
7�	-9513
����	-9514
��S��	-9515
	-9516
l	-9517
	-9518
3	-9519
)	-9520
,x	-9521
2-	-9522
<~	-9523
=	-9524
F3	-9525
O4	-9526
PN	-9527
Q	-9528
\!	-9529
e@	-9530
j_	-9531
nZ	-9532
�	-9533
����	-9534
�;���	-9535
�~���	-9536
��D��	-9537
��M��	-9538
����	-9539
���7�	-9540
"	-9541
)	-9542
	-9543
^	-9544
6	-9545
	-9546
$	-9547
,V	-9548
2Z	-9549
=W	-9550
F'	-9551
P{	-9552
Rh	-9553
SZ	-9554
]w	-9555
ih	-9556
p	-9557
|5	-9558
;�	-9559
o�k	-9560
����	-9561
��s��	-9562
��������������	-9563
	-9564
+K	-9565
75	-9566
?w	-9567
F8	-9568
Jj	-9569
M	-9570
Mc	-9571
P	-9572
Pn	-9573
yv	-9574
?�	-9575
)�0	-9576
����	-9577
����	-9578
��\��	-9579
5	-9580
T	-9581
G	-9582
	-9583
!	-9584
!	-9585
'z	-9586
-u	-9587
.c	-9588
6-	-9589
A!	-9590
IL	-9591
M	-9592
Pw	-9593
S9	-9594
W8	-9595
[l	-9596
]c	-9597
a	-9598
b*	-9599
i	-9600
qz	-9601
tk	-9602
����	-9603
����	-9604
��W��	-9605
B	-9606
C	-9607
	-9608
	-9609
U	-9610
&K	-9611
,j	-9612
2	-9613
2>	-9614
9	-9615
AE	-9616
Sn	-9617
VN	-9618
WU	-9619
^v	-9620
^~	-9621
`8	-9622
`@	-9623
`{	-9624
d	-9625
iu	-9626
p*	-9627
\�x	-9628
�-���	-9629
����	-9630
����	-9631
	-9632
h	-9633
!	-9634
,N	-9635
/4	-9636
0m	-9637
1	-9638
3	-9639
>	-9640
B	-9641
FZ	-9642
IJ	-9643
O(	-9644
QT	-9645
R$	-9646
Sf	-9647
Y4	-9648
b"	-9649
e;	-9650
|	-9651
7�g	-9652
����	-9653
��&��	-9654
���;�	-9655
D	-9656
'f	-9657
=l	-9658
A	-9659
BE	-9660
I:	-9661
Mu	-9662
SK	-9663
Ys	-9664
Yv	-9665
d"	-9666
j+	-9667
Q8�	-9668
\L�	-9669
`�L	-9670
�d���	-9671
��C��	-9672
�������	-9673
;�������	-9674
7	-9675
h	-9676
3	-9677
8}	-9678
>r	-9679
A$	-9680
FO	-9681
H	-9682
HZ	-9683
M	-9684
V	-9685
c#	-9686
)^�	-9687
�b���	-9688
	-9689
u	-9690
4	-9691
D	-9692
C	-9693
h	-9694
	-9695
h	-9696
%?	-9697
.#	-9698
2&	-9699
3	-9700
:X	-9701
HU	-9702
Ps	-9703
W	-9704
^{	-9705
_{	-9706
_}	-9707
p	-9708
���1�	-9709
1�������	-9710
%	-9711
%	-9712
(	-9713
*E	-9714
0@	-9715
0w	-9716
A	-9717
L{	-9718
O,	-9719
^8	-9720
_?	-9721
j	-9722
j/	-9723
j{	-9724
kq	-9725
kr	-9726
m}	-9727
�o	-9728
�F���	-9729
�Z���	-9730
��m��	-9731
B�������	-9732
T	-9733
G	-9734
E	-9735
.G	-9736
/+	-9737
9N	-9738
=	-9739
RE	-9740
V?	-9741
Yw	-9742
cG	-9743
d7	-9744
~4	-9745
▁T	-9746
\^�	-9747
����	-9748
�l���	-9749
��I��	-9750
	-9751
1	-9752
5	-9753
5	-9754
u	-9755
	-9756
6	-9757
%K	-9758
(n	-9759
04	-9760
<	-9761
OX	-9762
U	-9763
Xv	-9764
[#	-9765
a)	-9766
dR	-9767
fw	-9768
▁$	-9769
b�x	-9770
w�w	-9771
�(���	-9772
��%��	-9773
��0��	-9774
��X��	-9775
��^��	-9776
��q��	-9777
���{�	-9778
c�������	-9779
7	-9780
7	-9781
	-9782
0L	-9783
A)	-9784
M|	-9785
U?	-9786
VZ	-9787
Y	-9788
f]	-9789
m	-9790
7�{	-9791
b�r	-9792
p|�	-9793
����	-9794
�4���	-9795
����	-9796
���c�	-9797
�������	-9798
C	-9799
6	-9800
	-9801
(-	-9802
2	-9803
;	-9804
=u	-9805
BD	-9806
N	-9807
P+	-9808
RR	-9809
Ul	-9810
W+	-9811
Xn	-9812
\1	-9813
cu	-9814
d	-9815
ee	-9816
|*	-9817
���Q	-9818
��U��	-9819
���u�	-9820
	-9821
.	-9822
,K	-9823
,Z	-9824
,]	-9825
/y	-9826
9	-9827
<q	-9828
<v	-9829
@	-9830
A	-9831
B!	-9832
I8	-9833
I	-9834
Jm	-9835
[	-9836
[	-9837
g/	-9838
�	-9839
��'��	-9840
���.�	-9841
�������	-9842
	-9843
	-9844
	-9845
=	-9846
,>	-9847
6	-9848
ET	-9849
HH	-9850
PZ	-9851
P]	-9852
^	-9853
b)	-9854
i1	-9855
kX	-9856
l	-9857
a`�	-9858
�?���	-9859
�W���	-9860
��)��	-9861
��j��	-9862
���T�	-9863
���z�	-9864
l�������	-9865
	-9866
	-9867
#	-9868
r	-9869
(	-9870
.C	-9871
;Z	-9872
;f	-9873
B1	-9874
DD	-9875
Ls	-9876
Wz	-9877
\$	-9878
^m	-9879
ne	-9880
p)	-9881
▁*	-9882
J�	-9883
�{	-9884
�<���	-9885
����	-9886
��Z��	-9887
���Y�	-9888
d	-9889
?	-9890
	-9891
C	-9892
%6	-9893
'	-9894
(M	-9895
0o	-9896
9C	-9897
9c	-9898
:s	-9899
:z	-9900
=	-9901
>s	-9902
H	-9903
P	-9904
PS	-9905
W%	-9906
^O	-9907
i	-9908
~g	-9909
~v	-9910
▁a	-9911
�	-9912
�`���	-9913
��6��	-9914
���-�	-9915
	-9916
"	-9917
-	-9918
u	-9919
	-9920
7	-9921
	-9922
4y	-9923
55	-9924
=K	-9925
@m	-9926
@r	-9927
F`	-9928
GC	-9929
I`	-9930
QE	-9931
jX	-9932
k	-9933
k/	-9934
qL	-9935
~{	-9936
�g	-9937
pt�	-9938
����	-9939
�0���	-9940
����	-9941
���(�	-9942
7	-9943
	-9944
)	-9945
*	-9946
b	-9947
l	-9948
$"	-9949
&O	-9950
.	-9951
9m	-9952
A|	-9953
Fe	-9954
H	-9955
J-	-9956
N?	-9957
_g	-9958
j^	-9959
p3	-9960
~	-9961
�x	-9962
/�/	-9963
X�0	-9964
h:�	-9965
����	-9966
����	-9967
��8��	-9968
��L��	-9969
���O�	-9970
!	-9971
|	-9972
-	-9973
'3	-9974
+2	-9975
.	-9976
.5	-9977
:v	-9978
<X	-9979
@%	-9980
Dh	-9981
Uu	-9982
VC	-9983
]}	-9984
_r	-9985
f8	-9986
tm	-9987
~q	-9988
�Y���	-9989
��$��	-9990
���=�	-9991
d	-9992
i	-9993
	-9994
	-9995
!	-9996
	-9997
,z	-9998
.B	-9999
;e	-10000
E*	-10001
HG	-10002
IY	-10003
Iv	-10004
U	-10005
VS	-10006
Q�x	-10007
▁�x	-10008
����	-10009
����	-10010
����	-10011
����	-10012
��~��	-10013
����	-10014
[	-10015
	-10016
	-10017
#	-10018
&	-10019
,?	-10020
2=	-10021
M6	-10022
ks	-10023
lG	-10024
�	-10025
0�0	-10026
�,���	-10027
�.���	-10028
�������	-10029
"�������	-10030
)	-10031
[	-10032
6	-10033
7	-10034
'`	-10035
3	-10036
:L	-10037
D$	-10038
N(	-10039
Ta	-10040
U	-10041
Vu	-10042
^	-10043
i	-10044
j>	-10045
{�	-10046
at�	-10047
p0�	-10048
��,��	-10049
��<��	-10050
���_�	-10051
���o�	-10052
���t�	-10053
	-10054
	-10055
=	-10056
#[	-10057
,+	-10058
-	-10059
.h	-10060
@	-10061
@;	-10062
JX	-10063
Jw	-10064
Lr	-10065
_q	-10066
fK	-10067
ts	-10068
u5	-10069
|)	-10070
����	-10071
�9���	-10072
�=���	-10073
�>���	-10074
�K���	-10075
�|���	-10076
����	-10077
���U�	-10078
���V�	-10079
���^�	-10080
���n�	-10081
���s�	-10082
	-10083
A	-10084
	-10085
+	-10086
v	-10087
6	-10088
$a	-10089
$h	-10090
-;	-10091
:=	-10092
DR	-10093
H[	-10094
Y	-10095
b	-10096
os	-10097
p	-10098
|B	-10099
�~	-10100
Y�0	-10101
l<�	-10102
�f���	-10103
�g���	-10104
��.��	-10105
���'�	-10106
n�������	-10107
1	-10108
%	-10109
'K	-10110
(!	-10111
9	-10112
:^	-10113
=	-10114
H	-10115
HM	-10116
WS	-10117
Z	-10118
\Q	-10119
z�^	-10120
��+��	-10121
��K��	-10122
��R��	-10123
6	-10124
M	-10125
'I	-10126
.i	-10127
2O	-10128
4g	-10129
F	-10130
J{	-10131
Lm	-10132
V(	-10133
XS	-10134
Xg	-10135
[G	-10136
`N	-10137
f<	-10138
=�o	-10139
\]�	-10140
\�r	-10141
�M���	-10142
��>��	-10143
��g��	-10144
�x������	-10145
l	-10146
3	-10147
G	-10148
	-10149
6	-10150
	-10151
#	-10152
'	-10153
2S	-10154
B*	-10155
F	-10156
J^	-10157
R7	-10158
V;	-10159
W;	-10160
X	-10161
\T	-10162
]+	-10163
aa	-10164
c	-10165
zm	-10166
�8���	-10167
����	-10168
��r��	-10169
����	-10170
�������	-10171
T	-10172
	-10173
A	-10174
!	-10175
'Y	-10176
'j	-10177
.|	-10178
3c	-10179
9/	-10180
9Y	-10181
B|	-10182
I@	-10183
KK	-10184
P&	-10185
Pm	-10186
dB	-10187
dh	-10188
n%	-10189
^	-10190
�	-10191
.^�	-10192
D�	-10193
����	-10194
��c��	-10195
����	-10196
���|�	-10197
	-10198
(	-10199
	-10200
E	-10201
h	-10202
	-10203
u	-10204
,}	-10205
0/	-10206
:}	-10207
MO	-10208
P8	-10209
P@	-10210
[	-10211
_n	-10212
d	-10213
d\	-10214
d|	-10215
e	-10216
rv	-10217
y	-10218
~>	-10219
.�	-10220
p>�	-10221
�;	-10222
�2���	-10223
�R���	-10224
�e���	-10225
�z���	-10226
��a��	-10227
���9�	-10228
	-10229
Q	-10230
!	-10231
#C	-10232
,	-10233
5)	-10234
6	-10235
=O	-10236
FU	-10237
I	-10238
K}	-10239
M	-10240
N	-10241
V}	-10242
Zl	-10243
_z	-10244
`	-10245
f4	-10246
;�t	-10247
;�{	-10248
i8�	-10249
p6�	-10250
�c���	-10251
�o���	-10252
�s���	-10253
��]��	-10254
z�������	-10255
	-10256
9O	-10257
Db	-10258
E"	-10259
F	-10260
F	-10261
Jk	-10262
_/	-10263
`^	-10264
p	-10265
wG	-10266
~@	-10267
<�<	-10268
DI�	-10269
[�t	-10270
�w	-10271
▁+�	-10272
�m���	-10273
�}���	-10274
����	-10275
���&�	-10276
���B�	-10277
|	-10278
	-10279
2e	-10280
:	-10281
<o	-10282
?L	-10283
D	-10284
J4	-10285
WO	-10286
Wn	-10287
\A	-10288
`	-10289
a*	-10290
i	-10291
y4	-10292
▁\	-10293
o�o	-10294
����	-10295
�$���	-10296
�%���	-10297
�:���	-10298
�y���	-10299
����	-10300
u	-10301
	-10302
	-10303
	-10304
"	-10305
.	-10306
7	-10307
;S	-10308
=S	-10309
J/	-10310
Jz	-10311
W	-10312
`6	-10313
l	-10314
m{	-10315
?�?	-10316
aD�	-10317
�n���	-10318
~�������	-10319
#	-10320
u	-10321
'	-10322
*h	-10323
+%	-10324
2C	-10325
2N	-10326
3	-10327
3U	-10328
A	-10329
^>	-10330
fz	-10331
j8	-10332
/	-10333
O�	-10334
]�	-10335
Q`�	-10336
a�x	-10337
�/���	-10338
�a���	-10339
��4��	-10340
����	-10341
���\�	-10342
R�������	-10343
	-10344
$	-10345
5	-10346
'}	-10347
,%	-10348
Cu	-10349
Je	-10350
c	-10351
i!	-10352
jz	-10353
k	-10354
y8	-10355
=w�	-10356
g�g	-10357
▁^�	-10358
▁e�	-10359
�)���	-10360
�6���	-10361
��}��	-10362
h	-10363
$	-10364
1	-10365
A	-10366
	-10367
u	-10368
	-10369
|	-10370
4o	-10371
=-	-10372
D	-10373
P?	-10374
RT	-10375
b7	-10376
j}	-10377
p!	-10378
9�	-10379
>�0	-10380
`�t	-10381
p�x	-10382
▁t�	-10383
�@���	-10384
��:��	-10385
����	-10386
���[�	-10387
U	-10388
>	-10389
|	-10390
(H	-10391
+Z	-10392
1h	-10393
9K	-10394
<`	-10395
OG	-10396
V	-10397
VH	-10398
Y]	-10399
^	-10400
`g	-10401
fN	-10402
i*	-10403
r]	-10404
yz	-10405
S�	-10406
x�	-10407
.,�	-10408
V�r	-10409
a4�	-10410
����	-10411
���%�	-10412
���S�	-10413
|	-10414
.)	-10415
<8	-10416
=	-10417
F%	-10418
S	-10419
Vn	-10420
WZ	-10421
_s	-10422
d!	-10423
y`	-10424
s�	-10425
�	-10426
=q�	-10427
pr�	-10428
�h���	-10429
�i���	-10430
�p���	-10431
����	-10432
��"��	-10433
��-��	-10434
����	-10435
���5�	-10436
���Z�	-10437
���i�	-10438
�������	-10439
{�������	-10440
h	-10441
h	-10442
)	-10443
b	-10444
*$	-10445
+]	-10446
,2	-10447
0s	-10448
5	-10449
5h	-10450
B	-10451
C	-10452
L	-10453
W	-10454
[	-10455
_>	-10456
_e	-10457
d	-10458
iE	-10459
iT	-10460
oN	-10461
/�	-10462
[�	-10463
_�	-10464
c�	-10465
\.�	-10466
����	-10467
����	-10468
����	-10469
�[���	-10470
����	-10471
��2��	-10472
U	-10473
-	-10474
M	-10475
"	-10476
%-	-10477
(	-10478
5	-10479
9H	-10480
:g	-10481
=	-10482
?m	-10483
I'	-10484
Iz	-10485
Lk	-10486
X}	-10487
Y	-10488
_Z	-10489
d	-10490
n	-10491
t4	-10492
~_	-10493
?�	-10494
\c�	-10495
aR�	-10496
ab�	-10497
�1���	-10498
�j���	-10499
����	-10500
���6�	-10501
���:�	-10502
	-10503
	-10504
c	-10505
E	-10506
#	-10507
-O	-10508
/K	-10509
;[	-10510
F2	-10511
Lf	-10512
L	-10513
V'	-10514
[	-10515
j2	-10516
5v�	-10517
7�o	-10518
a�	-10519
����	-10520
���a�	-10521
R	-10522
B	-10523
	-10524
l	-10525
%	-10526
+&	-10527
+}	-10528
,M	-10529
,e	-10530
.7	-10531
1c	-10532
?	-10533
@	-10534
A	-10535
A	-10536
U	-10537
^w	-10538
ju	-10539
tv	-10540
L�	-10541
�*���	-10542
�+���	-10543
�k���	-10544
���*�	-10545
���F�	-10546
E	-10547
	-10548
[	-10549
!7	-10550
#	-10551
*D	-10552
BQ	-10553
I{	-10554
bT	-10555
lu	-10556
r	-10557
sc	-10558
g�	-10559
;�	-10560
a1�	-10561
h�0	-10562
�L���	-10563
���,�	-10564
���X�	-10565
$	-10566
n	-10567
	-10568
	-10569
*"	-10570
,	-10571
3	-10572
Iw	-10573
U	-10574
V	-10575
W2	-10576
[u	-10577
bi	-10578
d)	-10579
e-	-10580
e}	-10581
p7	-10582
ty	-10583
zc	-10584
�	-10585
�`	-10586
\o�	-10587
h6�	-10588
����	-10589
�S���	-10590
D	-10591
	-10592
	-10593
	-10594
)	-10595
	-10596
A*	-10597
AT	-10598
Hn	-10599
L'	-10600
U	-10601
Y	-10602
Yn	-10603
[	-10604
s	-10605
|T	-10606
.f�	-10607
7G�	-10608
aS�	-10609
w�v	-10610
{�k	-10611
�'���	-10612
���2�	-10613
���E�	-10614
���d�	-10615
3�������	-10616
M�������	-10617
	-10618
&?	-10619
1E	-10620
:	-10621
J`	-10622
K	-10623
S2	-10624
V	-10625
V	-10626
W	-10627
Ym	-10628
[	-10629
5�0	-10630
I�0	-10631
Q�	-10632
a$�	-10633
aO�	-10634
▁J�	-10635
����	-10636
���?�	-10637
���A�	-10638
���K�	-10639
���j�	-10640
-	-10641
E	-10642
E	-10643
#	-10644
+>	-10645
<z	-10646
=	-10647
@0	-10648
I	-10649
O;	-10650
RD	-10651
U	-10652
Vc	-10653
Y,	-10654
t	-10655
^�	-10656
L�	-10657
�	-10658
�	-10659
'�g	-10660
<�0	-10661
a�0	-10662
v�{	-10663
|~�	-10664
�{���	-10665
����	-10666
���r�	-10667
6	-10668
*	-10669
!C	-10670
(	-10671
36	-10672
=	-10673
A	-10674
KS	-10675
Kl	-10676
L>	-10677
O}	-10678
P;	-10679
_0	-10680
d$	-10681
d*	-10682
ky	-10683
nS	-10684
~s	-10685
(�	-10686
:�	-10687
t�	-10688
0�`	-10689
8�0	-10690
9�<	-10691
;�o	-10692
D�x	-10693
\X�	-10694
ay�	-10695
�?	-10696
�X���	-10697
���!�	-10698
���)�	-10699
h	-10700
	-10701
7	-10702
'	-10703
2	-10704
C	-10705
1	-10706
'Z	-10707
-	-10708
3l	-10709
5	-10710
8/	-10711
:y	-10712
@G	-10713
K	-10714
P9	-10715
Z	-10716
[	-10717
]	-10718
_	-10719
e	-10720
k0	-10721
p$	-10722
�	-10723
�	-10724
{�	-10725
5�	-10726
G�g	-10727
Q4�	-10728
aE�	-10729
▁�0	-10730
�D���	-10731
���>�	-10732
���Q�	-10733
�������	-10734
	-10735
!*	-10736
(u	-10737
-l	-10738
3	-10739
3#	-10740
4>	-10741
Ad	-10742
B	-10743
J	-10744
K7	-10745
N	-10746
UG	-10747
V	-10748
Xf	-10749
jl	-10750
vs	-10751
{+	-10752
�	-10753
&�	-10754
(�0	-10755
./�	-10756
:�g	-10757
Qr�	-10758
▁�	-10759
�"���	-10760
�&���	-10761
�C���	-10762
�E���	-10763
�t���	-10764
o�������	-10765
"	-10766
S	-10767
b	-10768
i	-10769
i	-10770
"	-10771
E	-10772
1	-10773
65	-10774
<r	-10775
B$	-10776
L^	-10777
M	-10778
M	-10779
NS	-10780
P=	-10781
PO	-10782
_	-10783
j,	-10784
mz	-10785
s	-10786
�	-10787
\�	-10788
a�	-10789
aj�	-10790
p<�	-10791
|{�	-10792
����	-10793
���0�	-10794
/�������	-10795
D	-10796
G	-10797
(	-10798
1)	-10799
4{	-10800
I>	-10801
K	-10802
W,	-10803
[i	-10804
\)	-10805
\*	-10806
f>	-10807
n	-10808
n^	-10809
q@	-10810
q]	-10811
wX	-10812
wy	-10813
^�	-10814
&�0	-10815
1�	-10816
1�0	-10817
`�X	-10818
d9�	-10819
px�	-10820
�]���	-10821
��y��	-10822
����	-10823
�������	-10824
h	-10825
	-10826
	-10827
(C	-10828
3	-10829
3C	-10830
8	-10831
AQ	-10832
Bh	-10833
F	-10834
I^	-10835
Vl	-10836
r4	-10837
4�g	-10838
7o�	-10839
8�g	-10840
G�t	-10841
Q�	-10842
a�	-10843
w�{	-10844
�N���	-10845
���R�	-10846
	-10847
$	-10848
}	-10849
	-10850
h	-10851
!	-10852
#*	-10853
(G	-10854
+;	-10855
8c	-10856
:9	-10857
=7	-10858
Eh	-10859
M	-10860
[	-10861
[	-10862
_,	-10863
e%	-10864
f	-10865
i	-10866
|b	-10867
|h	-10868
J�	-10869
�	-10870
0�t	-10871
p~�	-10872
▁�	-10873
����	-10874
�Q���	-10875
�T���	-10876
�\���	-10877
��e��	-10878
���`�	-10879
�������	-10880
#�������	-10881
O	-10882
W	-10883
	-10884
"	-10885
	-10886
u	-10887
1"	-10888
5.	-10889
A	-10890
G	-10891
Jo	-10892
PW	-10893
Y	-10894
|"	-10895
�/	-10896
�g	-10897
X�	-10898
0�{	-10899
7�	-10900
a<�	-10901
n�`	-10902
o�`	-10903
����	-10904
�3���	-10905
����	-10906
���/�	-10907
	-10908
$	-10909
	-10910
!	-10911
#U	-10912
&C	-10913
'F	-10914
2	-10915
2	-10916
J'	-10917
LX	-10918
L}	-10919
M	-10920
YW	-10921
r>	-10922
rm	-10923
&�	-10924
�X	-10925
�_	-10926
O�O	-10927
_�^	-10928
}�	-10929
▁@�	-10930
▁L�	-10931
�I���	-10932
���4�	-10933
���J�	-10934
���b�	-10935
w�������	-10936
	-10937
	-10938
#u	-10939
."	-10940
1	-10941
6*	-10942
:;	-10943
<0	-10944
?j	-10945
BT	-10946
It	-10947
Jq	-10948
L4	-10949
c-	-10950
vX	-10951
~]	-10952
�	-10953
S�	-10954
3t�	-10955
F�`	-10956
\b�	-10957
s�{	-10958
|x�	-10959
�#���	-10960
�q���	-10961
��P��	-10962
���f�	-10963
���m�	-10964
	-10965
	-10966
	-10967
"	-10968
	-10969
#7	-10970
(	-10971
+n	-10972
@O	-10973
J	-10974
JN	-10975
JP	-10976
J]	-10977
\"	-10978
o]	-10979
�0	-10980
�0	-10981
R�	-10982
#�r	-10983
3�t	-10984
\'�	-10985
d:�	-10986
ph�	-10987
t�{	-10988
|k�	-10989
����	-10990
���k�	-10991
�������	-10992
	-10993
	-10994
!u	-10995
'&	-10996
,9	-10997
,S	-10998
/f	-10999
29	-11000
<4	-11001
@X	-11002
J>	-11003
M;	-11004
[7	-11005
k9	-11006
qf	-11007
t	-11008
~j	-11009
f�	-11010
�	-11011
�0	-11012
*U�	-11013
G�{	-11014
TU�	-11015
\�	-11016
a�	-11017
d�x	-11018
q�{	-11019
|r�	-11020
����	-11021
��A��	-11022
u	-11023
8	-11024
	-11025
!	-11026
#	-11027
5	-11028
8	-11029
H	-11030
IS	-11031
V	-11032
Ye	-11033
nc	-11034
rN	-11035
�x	-11036
�x	-11037
�0	-11038
EK�	-11039
G�o	-11040
Q2�	-11041
\t�	-11042
c�k	-11043
p:�	-11044
▁�	-11045
▁�	-11046
▁)�	-11047
�A���	-11048
����	-11049
�������	-11050
�������	-11051
	-11052
B	-11053
=	-11054
u	-11055
	-11056
K	-11057
Z	-11058
f	-11059
	-11060
%8	-11061
(	-11062
SS	-11063
U	-11064
Y/	-11065
Yc	-11066
mc	-11067
pR	-11068
yX	-11069
~X	-11070
�x	-11071
9�:	-11072
G�0	-11073
[�o	-11074
c�g	-11075
db�	-11076
l�:	-11077
o�v	-11078
▁%�	-11079
�_���	-11080
����	-11081
���e�	-11082
[	-11083
-	-11084
i	-11085
U	-11086
(=	-11087
1R	-11088
44	-11089
5	-11090
@&	-11091
F	-11092
Zc	-11093
e[	-11094
vn	-11095
z	-11096
0�<	-11097
<�o	-11098
B+�	-11099
T�	-11100
d4�	-11101
o�{	-11102
|w�	-11103
▁�	-11104
>	-11105
*	-11106
E	-11107
i	-11108
!	-11109
%C	-11110
&9	-11111
+j	-11112
2	-11113
2u	-11114
6M	-11115
7	-11116
8O	-11117
?	-11118
@>	-11119
@}	-11120
TD	-11121
h	-11122
l5	-11123
mO	-11124
w4	-11125
w	-11126
z4	-11127
~}	-11128
M�	-11129
L�	-11130
F�	-11131
�t	-11132
�>	-11133
;�v	-11134
d6�	-11135
pv�	-11136
▁I�	-11137
▁N�	-11138
▁v�	-11139
����	-11140
�r���	-11141
���#�	-11142
$�������	-11143
'�������	-11144
	-11145
(	-11146
-	-11147
6	-11148
;	-11149
FG	-11150
WG	-11151
en	-11152
q{	-11153
s/	-11154
~I	-11155
�	-11156
F�	-11157
/�	-11158
"�	-11159
&�t	-11160
B7�	-11161
DS�	-11162
Q.�	-11163
\Y�	-11164
a�	-11165
hb�	-11166
w�k	-11167
z�{	-11168
▁R�	-11169
����	-11170
����	-11171
���8�	-11172
�������	-11173
!�������	-11174
8	-11175
"R	-11176
#	-11177
%M	-11178
:o	-11179
<9	-11180
Jn	-11181
U=	-11182
VM	-11183
\	-11184
^	-11185
`m	-11186
fj	-11187
s	-11188
w]	-11189
�	-11190
�	-11191
�	-11192
/�k	-11193
J�L	-11194
T�x	-11195
W�k	-11196
`�0	-11197
a�	-11198
�5���	-11199
�J���	-11200
�v���	-11201
����	-11202
���C�	-11203
���p�	-11204
���v�	-11205
����	-11206
E	-11207
=	-11208
	-11209
A	-11210
"b	-11211
([	-11212
+U	-11213
/L	-11214
/Z	-11215
2	-11216
5	-11217
83	-11218
F?	-11219
J,	-11220
WV	-11221
W]	-11222
eC	-11223
v>	-11224
v_	-11225
L�	-11226
�0	-11227
�x	-11228
?�	-11229
�o	-11230
�:	-11231
:�0	-11232
p)�	-11233
{�	-11234
���D�	-11235
v�������	-11236
Y	-11237
#1	-11238
&-	-11239
(l	-11240
.*	-11241
2n	-11242
5A	-11243
6	-11244
;	-11245
;	-11246
F=	-11247
G	-11248
Hl	-11249
I_	-11250
I}	-11251
J_	-11252
M[	-11253
N+	-11254
^f	-11255
^}	-11256
r'	-11257
|	-11258
�0	-11259
!^�	-11260
3q�	-11261
9�0	-11262
Qt�	-11263
TK�	-11264
\x�	-11265
`�:	-11266
a"�	-11267
ah�	-11268
p=�	-11269
pB�	-11270
▁�	-11271
▁>�	-11272
▁O�	-11273
▁Q�	-11274
�P���	-11275
��H��	-11276
���q�	-11277
���y�	-11278
1	-11279
u	-11280
!	-11281
!1	-11282
%	-11283
(	-11284
.E	-11285
28	-11286
<_	-11287
@@	-11288
H	-11289
IO	-11290
UC	-11291
Ui	-11292
^j	-11293
e	-11294
mS	-11295
v4	-11296
�	-11297
/�	-11298
S�	-11299
�t	-11300
�	-11301
b�	-11302
70�	-11303
R�	-11304
\�	-11305
\<�	-11306
|�x	-11307
���<�	-11308
D	-11309
	-11310
$$	-11311
&	-11312
&6	-11313
&P	-11314
;u	-11315
?u	-11316
Ij	-11317
LP	-11318
YO	-11319
r8	-11320
r{	-11321
�{	-11322
�t	-11323
3�	-11324
7t�	-11325
;�g	-11326
N�{	-11327
QU�	-11328
[�v	-11329
j�z	-11330
pg�	-11331
▁3�	-11332
�U���	-11333
���@�	-11334
W�������	-11335
b	-11336
-	-11337
K	-11338
	-11339
	-11340
"h	-11341
@-	-11342
F7	-11343
Js	-11344
qX	-11345
%�	-11346
k�	-11347
�g	-11348
6�	-11349
9�g	-11350
E�0	-11351
Q�	-11352
a�	-11353
a:�	-11354
{�w	-11355
��!��	-11356
����	-11357
���H�	-11358
���h�	-11359
C	-11360
m	-11361
	-11362
%P	-11363
1	-11364
2M	-11365
2[	-11366
5i	-11367
6=	-11368
B	-11369
H(	-11370
Ly	-11371
Nn	-11372
Q	-11373
`O	-11374
fe	-11375
rs	-11376
�w	-11377
\�	-11378
�o	-11379
;�0	-11380
A'�	-11381
L�X	-11382
RD�	-11383
T*�	-11384
W�0	-11385
aM�	-11386
d�	-11387
p2�	-11388
|o�	-11389
����	-11390
���$�	-11391
*	-11392
P	-11393
8	-11394
*	-11395
%	-11396
,	-11397
3	-11398
5	-11399
5*	-11400
6	-11401
?Y	-11402
@#	-11403
@S	-11404
J	-11405
JK	-11406
L_	-11407
M	-11408
N9	-11409
X+	-11410
hh	-11411
j-	-11412
v	-11413
�	-11414
*�	-11415
]�	-11416
�	-11417
`�	-11418
�o	-11419
#�0	-11420
6�g	-11421
6�o	-11422
=�t	-11423
R2�	-11424
[�^	-11425
aa�	-11426
dQ�	-11427
z�y	-11428
��B��	-11429
���L�	-11430
���l�	-11431
C�������	-11432
U�������	-11433
	-11434
K	-11435
	-11436
	-11437
	-11438
,n	-11439
:]	-11440
C	-11441
G=	-11442
H#	-11443
IK	-11444
Lz	-11445
j9	-11446
m	-11447
q	-11448
u	-11449
�	-11450
�g	-11451
/�	-11452
5�	-11453
5�4	-11454
\{�	-11455
_�_	-11456
`�{	-11457
b�	-11458
w�g	-11459
|c�	-11460
����	-11461
E	-11462
i	-11463
	-11464
'n	-11465
(	-11466
3	-11467
5=	-11468
G	-11469
JW	-11470
dA	-11471
k?	-11472
v8	-11473
5,�	-11474
Tk�	-11475
a�	-11476
p(�	-11477
y�0	-11478
|q�	-11479
▁�	-11480
▁1�	-11481
▁4�	-11482
�u���	-11483
��i��	-11484
b	-11485
N	-11486
%	-11487
,-	-11488
.	-11489
/-	-11490
/}	-11491
6	-11492
@	-11493
FC	-11494
Gc	-11495
J~	-11496
eZ	-11497
jK	-11498
l	-11499
qn	-11500
yK	-11501
�{	-11502
�X	-11503
Y�	-11504
5�o	-11505
B�	-11506
R*�	-11507
T�	-11508
\/�	-11509
aG�	-11510
pf�	-11511
▁�	-11512
▁f�	-11513
▁r�	-11514
���+�	-11515
O�������	-11516
	-11517
	-11518
n	-11519
	-11520
&	-11521
(	-11522
.3	-11523
2;	-11524
5	-11525
7	-11526
?O	-11527
@v	-11528
H	-11529
H	-11530
M=	-11531
MC	-11532
N	-11533
f~	-11534
j~	-11535
l	-11536
l	-11537
rn	-11538
�t	-11539
O�	-11540
�	-11541
~�	-11542
)�	-11543
.N�	-11544
.�`	-11545
5�	-11546
?�0	-11547
B�	-11548
B{�	-11549
Q/�	-11550
Q:�	-11551
Rh�	-11552
W�g	-11553
\8�	-11554
\:�	-11555
a(�	-11556
aT�	-11557
g�o	-11558
▁H�	-11559
���~�	-11560
*	-11561
	-11562
	-11563
"$	-11564
&	-11565
8P	-11566
@n	-11567
ED	-11568
IW	-11569
J%	-11570
Ns	-11571
S-	-11572
YZ	-11573
`	-11574
f+	-11575
l	-11576
s:	-11577
w_	-11578
^�	-11579
�	-11580
S�	-11581
�t	-11582
�	-11583
,�0	-11584
=<�	-11585
?�o	-11586
a&�	-11587
aN�	-11588
a_�	-11589
b:�	-11590
h<�	-11591
l�x	-11592
o�_	-11593
pz�	-11594
w�y	-11595
▁�	-11596
▁*�	-11597
N�������	-11598
	-11599
	-11600
	-11601
'8	-11602
'm	-11603
1	-11604
9+	-11605
J	-11606
L:	-11607
U	-11608
dD	-11609
jZ	-11610
u	-11611
|$	-11612
-�	-11613
O�	-11614
A0�	-11615
E�x	-11616
Q�	-11617
X�t	-11618
[x�	-11619
\�	-11620
\�	-11621
\Z�	-11622
^�X	-11623
b<�	-11624
h1�	-11625
h�x	-11626
p8�	-11627
pq�	-11628
{�z	-11629
|�	-11630
▁�	-11631
▁/�	-11632
	-11633
Z	-11634
!i	-11635
,F	-11636
;	-11637
F6	-11638
G	-11639
I	-11640
J	-11641
O	-11642
\D	-11643
c	-11644
e+	-11645
m	-11646
q}	-11647
s>	-11648
:�	-11649
�x	-11650
Z�	-11651
�^	-11652
�0	-11653
;�?	-11654
a%�	-11655
ar�	-11656
a�{	-11657
p`�	-11658
pb�	-11659
|:�	-11660
|z�	-11661
▁F�	-11662
���"�	-11663
V�������	-11664
y�������	-11665
7	-11666
!3	-11667
#i	-11668
%(	-11669
&	-11670
4k	-11671
J2	-11672
N=	-11673
P	-11674
U	-11675
V-	-11676
c	-11677
j	-11678
l	-11679
l3	-11680
m/	-11681
m8	-11682
z>	-11683
l�	-11684
P�	-11685
z�	-11686
5�	-11687
=�0	-11688
>�:	-11689
R0�	-11690
Rt�	-11691
TS�	-11692
b�	-11693
hd�	-11694
m�t	-11695
p&�	-11696
▁�	-11697
����	-11698
���P�	-11699
���]�	-11700
F�������	-11701
$	-11702
	-11703
u	-11704
'+	-11705
,8	-11706
/X	-11707
I2	-11708
NC	-11709
O+	-11710
V	-11711
V#	-11712
];	-11713
je	-11714
mf	-11715
o4	-11716
|d	-11717
#�	-11718
�	-11719
x�	-11720
�g	-11721
�r	-11722
�t	-11723
7�t	-11724
9�q	-11725
Bo�	-11726
Q�	-11727
QE�	-11728
U�X	-11729
aL�	-11730
aQ�	-11731
aW�	-11732
c�{	-11733
l�w	-11734
|�w	-11735
|�{	-11736
▁'�	-11737
6	-11738
P	-11739
	-11740
	-11741
n	-11742
%7	-11743
9u	-11744
<	-11745
<}	-11746
I+	-11747
K	-11748
_f	-11749
`H	-11750
pE	-11751
zo	-11752
V�	-11753
�0	-11754
�0	-11755
�0	-11756
�k	-11757
�g	-11758
�0	-11759
�q	-11760
�?	-11761
2�g	-11762
3�	-11763
5�z	-11764
Ax�	-11765
B/�	-11766
QZ�	-11767
\D�	-11768
a�	-11769
a�	-11770
d�	-11771
~�y	-11772
~�	-11773
▁�	-11774
▁�	-11775
▁-�	-11776
▁\�	-11777
�G���	-11778
d	-11779
i	-11780
	-11781
&l	-11782
@	-11783
FH	-11784
G	-11785
G	-11786
IP	-11787
Kc	-11788
W	-11789
m^	-11790
w^	-11791
|D	-11792
~^	-11793
H�	-11794
]�	-11795
/�	-11796
-�	-11797
}�	-11798
�0	-11799
�{	-11800
!H�	-11801
.�	-11802
3�0	-11803
7�	-11804
7v�	-11805
9�L	-11806
;�	-11807
BW�	-11808
F�^	-11809
G'�	-11810
N�r	-11811
Q\�	-11812
Qe�	-11813
RQ�	-11814
p�	-11815
u�{	-11816
▁x�	-11817
*	-11818
n	-11819
"T	-11820
%	-11821
'	-11822
(	-11823
2	-11824
9	-11825
9P	-11826
?	-11827
F-	-11828
F1	-11829
[	-11830
jM	-11831
mN	-11832
pT	-11833
sY	-11834
v]	-11835
�	-11836
K�	-11837
�0	-11838
z�	-11839
�z	-11840
�_	-11841
)e�	-11842
0�g	-11843
51�	-11844
6�L	-11845
Q$�	-11846
QK�	-11847
R�x	-11848
W�o	-11849
aZ�	-11850
ad�	-11851
ax�	-11852
bh�	-11853
c�q	-11854
n�0	-11855
n�k	-11856
p@�	-11857
q�0	-11858
▁�	-11859
▁0�	-11860
	-11861
#M	-11862
&7	-11863
'	-11864
4s	-11865
>	-11866
G-	-11867
In	-11868
NM	-11869
Zn	-11870
l$	-11871
v	-11872
vW	-11873
�	-11874
�x	-11875
_�	-11876
S�	-11877
`�	-11878
.F�	-11879
4�L	-11880
4�k	-11881
>�<	-11882
?�;	-11883
A�x	-11884
B�	-11885
F#�	-11886
Q,�	-11887
QJ�	-11888
Qx�	-11889
\P�	-11890
\`�	-11891
bO�	-11892
h�	-11893
h�X	-11894
s�y	-11895
{�g	-11896
▁W�	-11897
▁_�	-11898
�B���	-11899
$	-11900
&U	-11901
'	-11902
8	-11903
9#	-11904
C1	-11905
JY	-11906
K?	-11907
[6	-11908
bE	-11909
iD	-11910
~/	-11911
�/	-11912
�w	-11913
a�	-11914
.�r	-11915
/�g	-11916
/�o	-11917
1�	-11918
:�o	-11919
;�;	-11920
=�	-11921
>�y	-11922
ES�	-11923
QP�	-11924
T7�	-11925
T^�	-11926
T�0	-11927
az�	-11928
d�	-11929
g�{	-11930
iS�	-11931
n�y	-11932
p�	-11933
p�	-11934
t�w	-11935
▁E�	-11936
S	-11937
!)	-11938
C	-11939
H	-11940
J+	-11941
]S	-11942
`}	-11943
e	-11944
f	-11945
~Y	-11946
%�	-11947
U�	-11948
+�r	-11949
10�	-11950
5E�	-11951
5Y�	-11952
6�0	-11953
=�	-11954
GG�	-11955
[�k	-11956
\,�	-11957
aI�	-11958
p�	-11959
}�^	-11960
~�{	-11961
▁?�	-11962
����	-11963
	-11964
	-11965
&H	-11966
6	-11967
>X	-11968
`_	-11969
f,	-11970
f	-11971
v^	-11972
J�	-11973
�0	-11974
�	-11975
�	-11976
&�	-11977
F�	-11978
P�	-11979
�0	-11980
�k	-11981
X�	-11982
�0	-11983
o�	-11984
)�L	-11985
)�t	-11986
.�0	-11987
5�	-11988
76�	-11989
9�r	-11990
DU�	-11991
M&�	-11992
Q^�	-11993
R�	-11994
T5�	-11995
TY�	-11996
U�^	-11997
\R�	-11998
\_�	-11999
ae�	-12000
cL�	-12001
h�	-12002
j�X	-12003
k�r	-12004
l�o	-12005
m�k	-12006
p�	-12007
s�g	-12008
|�	-12009
|8�	-12010
|v�	-12011
▁&�	-12012
▁K�	-12013
���I�	-12014
]�������	-12015
%	-12016
y	-12017
!8	-12018
&	-12019
&(	-12020
,	-12021
;	-12022
?	-12023
IF	-12024
JS	-12025
Y2	-12026
[	-12027
`~	-12028
eH	-12029
fL	-12030
s@	-12031
sP	-12032
v/	-12033
0�	-12034
L�	-12035
F�	-12036
�^	-12037
M�	-12038
L�	-12039
)�g	-12040
72�	-12041
Q1�	-12042
R-�	-12043
[�0	-12044
\J�	-12045
\y�	-12046
a6�	-12047
b�	-12048
d�	-12049
g�t	-12050
k�^	-12051
pL�	-12052
|2�	-12053
|s�	-12054
}�k	-12055
	-12056
1*	-12057
3	-12058
7	-12059
9	-12060
:4	-12061
G	-12062
N-	-12063
WP	-12064
Z'	-12065
`	-12066
c	-12067
dE	-12068
l	-12069
u	-12070
z^	-12071
�	-12072
X�	-12073
y�	-12074
$�0	-12075
5�t	-12076
60�	-12077
Q�0	-12078
RJ�	-12079
\[�	-12080
\a�	-12081
]�k	-12082
a2�	-12083
b�	-12084
b`�	-12085
dd�	-12086
i�x	-12087
p"�	-12088
uv�	-12089
▁�	-12090
▁$�	-12091
▁~�	-12092
����	-12093
����	-12094
Z�������	-12095
	-12096
	-12097
)	-12098
	-12099
	-12100
%#	-12101
2#	-12102
8,	-12103
:	-12104
;	-12105
A"	-12106
B"	-12107
KV	-12108
O	-12109
qj	-12110
u	-12111
z#	-12112
4�	-12113
O�	-12114
�	-12115
�4	-12116
^�	-12117
1�4	-12118
7�k	-12119
N�0	-12120
Re�	-12121
TR�	-12122
\;�	-12123
a-�	-12124
c�0	-12125
k�k	-12126
p�	-12127
▁2�	-12128
▁Y�	-12129
▁�<	-12130
*	-12131
n	-12132
%	-12133
--	-12134
:+	-12135
>/	-12136
I]	-12137
O	-12138
W	-12139
Z	-12140
c	-12141
e	-12142
l	-12143
y<	-12144
M�	-12145
�t	-12146
�^	-12147
�k	-12148
M�	-12149
$'�	-12150
'�o	-12151
3L�	-12152
7�0	-12153
9�o	-12154
;x�	-12155
D^�	-12156
N�q	-12157
[L�	-12158
i`�	-12159
i�y	-12160
k�t	-12161
k�{	-12162
lb�	-12163
w�o	-12164
}�{	-12165
�o	-12166
▁G�	-12167
▁b�	-12168
%	-12169
3	-12170
3=	-12171
3A	-12172
9	-12173
91	-12174
;P	-12175
@	-12176
BB	-12177
C	-12178
U	-12179
`]	-12180
f/	-12181
fM	-12182
m=	-12183
{�	-12184
x�	-12185
�0	-12186
�0	-12187
�k	-12188
�L	-12189
X�	-12190
�o	-12191
�w	-12192
!%�	-12193
!(�	-12194
.~�	-12195
5�	-12196
5�x	-12197
8�8	-12198
AI�	-12199
O�o	-12200
RV�	-12201
R|�	-12202
\|�	-12203
aK�	-12204
b�	-12205
g�X	-12206
j�t	-12207
p�{	-12208
▁�	-12209
▁<�	-12210
▁V�	-12211
����	-12212
�H���	-12213
n	-12214
|	-12215
#	-12216
&M	-12217
5	-12218
5E	-12219
6	-12220
Im	-12221
Z	-12222
[E	-12223
c=	-12224
f}	-12225
l	-12226
uE	-12227
v	-12228
z	-12229
zj	-12230
�0	-12231
f�	-12232
�X	-12233
�x	-12234
�k	-12235
&�L	-12236
.�X	-12237
?�{	-12238
Q�	-12239
Q=�	-12240
Q_�	-12241
a*�	-12242
c�y	-12243
dM�	-12244
i4�	-12245
}�o	-12246
▁�	-12247
	-12248
	-12249
	-12250
	-12251
!	-12252
$D	-12253
&	-12254
3h	-12255
6#	-12256
7E	-12257
H	-12258
J}	-12259
K	-12260
N	-12261
NK	-12262
V	-12263
V=	-12264
c	-12265
l	-12266
u	-12267
xx	-12268
z]	-12269
~L	-12270
_�	-12271
�0	-12272
�}	-12273
M�	-12274
!�	-12275
)X�	-12276
*�	-12277
.�	-12278
1,�	-12279
3�g	-12280
B<�	-12281
Z�k	-12282
\~�	-12283
`�r	-12284
a�g	-12285
a�t	-12286
dO�	-12287
pd�	-12288
r�r	-12289
w�s	-12290
▁q�	-12291
	-12292
'2	-12293
-=	-12294
/j	-12295
HC	-12296
Is	-12297
K	-12298
NP	-12299
U	-12300
W}	-12301
fP	-12302
hD	-12303
vm	-12304
?	-12305
�k	-12306
L�	-12307
,�	-12308
�	-12309
:�	-12310
x�	-12311
&�X	-12312
),�	-12313
*/�	-12314
*I�	-12315
.]�	-12316
1�g	-12317
3v�	-12318
6�t	-12319
8�t	-12320
;�w	-12321
?�<	-12322
Go�	-12323
K�0	-12324
O�>	-12325
V�q	-12326
Z�t	-12327
\�	-12328
\g�	-12329
`�w	-12330
a^�	-12331
a�<	-12332
a�X	-12333
pF�	-12334
pG�	-12335
u�t	-12336
|'�	-12337
▁�	-12338
▁C�	-12339
!"	-12340
'	-12341
)T	-12342
,	-12343
6A	-12344
Hc	-12345
NZ	-12346
["	-12347
F�	-12348
m�	-12349
�	-12350
P�	-12351
�	-12352
�0	-12353
�	-12354
z�	-12355
_�	-12356
�o	-12357
o�	-12358
�>	-12359
)<�	-12360
)�x	-12361
.l�	-12362
.�x	-12363
1F�	-12364
6�{	-12365
7�`	-12366
9�y	-12367
?�t	-12368
H�0	-12369
J�r	-12370
Qj�	-12371
R�	-12372
Ty�	-12373
X�`	-12374
a�	-12375
bb�	-12376
c�`	-12377
d[�	-12378
hS�	-12379
k�X	-12380
p�0	-12381
▁s�	-12382
;	-12383
/P	-12384
6	-12385
;C	-12386
F	-12387
I9	-12388
O-	-12389
e	-12390
f;	-12391
fY	-12392
z`	-12393
~	-12394
	-12395
�	-12396
z�	-12397
(�	-12398
�t	-12399
'�	-12400
8�	-12401
M�	-12402
�	-12403
D�	-12404
S�	-12405
q�	-12406
s�	-12407
�<	-12408
)F�	-12409
0�>	-12410
7'�	-12411
BK�	-12412
P�0	-12413
Q�	-12414
Q"�	-12415
QL�	-12416
QN�	-12417
QS�	-12418
Qo�	-12419
Q|�	-12420
TX�	-12421
W�_	-12422
]�o	-12423
a�	-12424
a�:	-12425
b4�	-12426
bd�	-12427
d1�	-12428
e�0	-12429
h>�	-12430
uE�	-12431
u�q	-12432
{�o	-12433
	-12434
D	-12435
&	-12436
(5	-12437
4]	-12438
7=	-12439
8	-12440
:q	-12441
;j	-12442
>8	-12443
JF	-12444
[$	-12445
f2	-12446
r=	-12447
sn	-12448
zZ	-12449
(�	-12450
Z�	-12451
+�	-12452
=�	-12453
1�	-12454
�t	-12455
"�0	-12456
$F�	-12457
)4�	-12458
*�t	-12459
-�0	-12460
.�	-12461
3�o	-12462
O�k	-12463
R�	-12464
R%�	-12465
R4�	-12466
W�t	-12467
[�{	-12468
]�^	-12469
aY�	-12470
d�	-12471
dS�	-12472
p�	-12473
|<�	-12474
▁z�	-12475
����o	-12476
����x	-12477
	-12478
D	-12479
	-12480
'	-12481
1i	-12482
3	-12483
4/	-12484
@,	-12485
C	-12486
U*	-12487
V	-12488
W9	-12489
Y-	-12490
]	-12491
]Z	-12492
_S	-12493
bB	-12494
f9	-12495
r^	-12496
�	-12497
|�	-12498
%�	-12499
,�	-12500
h�	-12501
�g	-12502
�	-12503
v�	-12504
$�	-12505
.�	-12506
.;�	-12507
/�0	-12508
5�X	-12509
5�y	-12510
6^�	-12511
7r�	-12512
QQ�	-12513
]�g	-12514
ao�	-12515
c�o	-12516
j�0	-12517
m�g	-12518
p4�	-12519
pa�	-12520
w�	-12521
▁8�	-12522
▁y�	-12523
	-12524
	-12525
e	-12526
}	-12527
"	-12528
K	-12529
!!	-12530
#	-12531
%	-12532
+S	-12533
1	-12534
2	-12535
L/	-12536
N;	-12537
UD	-12538
c	-12539
f-	-12540
h*	-12541
jO	-12542
rw	-12543
z@	-12544
�	-12545
o�	-12546
�t	-12547
�g	-12548
)�	-12549
2�`	-12550
?�_	-12551
B�	-12552
Q�	-12553
R�	-12554
\�	-12555
b1�	-12556
d�	-12557
k�y	-12558
pi�	-12559
{�_	-12560
�!���	-12561
	-12562
	-12563
	-12564
	-12565
	-12566
+e	-12567
3E	-12568
:~	-12569
F	-12570
Ie	-12571
W	-12572
YC	-12573
[	-12574
c	-12575
hA	-12576
jn	-12577
$�	-12578
�	-12579
N�	-12580
_�	-12581
�	-12582
Y�	-12583
�x	-12584
�t	-12585
)J�	-12586
.�^	-12587
0�o	-12588
31�	-12589
A�	-12590
K�t	-12591
Q*�	-12592
QD�	-12593
Qz�	-12594
RP�	-12595
R�y	-12596
S�0	-12597
\�	-12598
\9�	-12599
a�	-12600
a�	-12601
aX�	-12602
bf�	-12603
m�o	-12604
▁9�	-12605
▁T�	-12606
▁�q	-12607
����	-12608
	-12609
V	-12610
%H	-12611
9	-12612
M?	-12613
ZO	-12614
c	-12615
fC	-12616
l1	-12617
vO	-12618
ve	-12619
v}	-12620
�y	-12621
3�	-12622
4�	-12623
�g	-12624
#�	-12625
U�	-12626
8�	-12627
S�	-12628
�`	-12629
$�	-12630
)&�	-12631
)L�	-12632
5F�	-12633
=�w	-12634
B�	-12635
M,�	-12636
Q�	-12637
Q�	-12638
Qy�	-12639
V�t	-12640
\�	-12641
^�t	-12642
b�	-12643
b�0	-12644
i�	-12645
i�0	-12646
p,�	-12647
py�	-12648
u�w	-12649
▁7�	-12650
�������	-12651
U	-12652
!|	-12653
%	-12654
:	-12655
:K	-12656
@8	-12657
@9	-12658
AB	-12659
F	-12660
M	-12661
VU	-12662
_X	-12663
m?	-12664
�	-12665
�	-12666
�t	-12667
W�	-12668
M�	-12669
x�	-12670
,�	-12671
h�	-12672
$^�	-12673
'�0	-12674
'�{	-12675
):�	-12676
.Z�	-12677
0�L	-12678
3�k	-12679
5�k	-12680
8�<	-12681
=�`	-12682
@�0	-12683
Qh�	-12684
Qp�	-12685
\*�	-12686
\2�	-12687
\>�	-12688
\r�	-12689
aJ�	-12690
a|�	-12691
c�<	-12692
i2�	-12693
n�{	-12694
pC�	-12695
pe�	-12696
pj�	-12697
uq�	-12698
▁B�	-12699
▁U�	-12700
�������	-12701
W	-12702
	-12703
	-12704
#	-12705
'%	-12706
'e	-12707
(	-12708
-	-12709
=	-12710
@P	-12711
K9	-12712
M	-12713
N	-12714
N	-12715
j	-12716
r/	-12717
�	-12718
T�	-12719
�o	-12720
]�	-12721
�t	-12722
�	-12723
Q�	-12724
w�	-12725
)�<	-12726
;�<	-12727
G�	-12728
V�g	-12729
\-�	-12730
\6�	-12731
b_�	-12732
bl�	-12733
d�	-12734
d_�	-12735
i<�	-12736
p�	-12737
~�?	-12738
1	-12739
;	-12740
>Y	-12741
LS	-12742
M	-12743
Z%	-12744
jW	-12745
v<	-12746
<�	-12747
P�	-12748
&�	-12749
S�	-12750
�g	-12751
L�	-12752
�4	-12753
�	-12754
a�	-12755
f�	-12756
�	-12757
�:	-12758
"�J	-12759
$�	-12760
)�k	-12761
.:�	-12762
5�g	-12763
B�	-12764
G�x	-12765
N�t	-12766
Qw�	-12767
T%�	-12768
Y�t	-12769
Z�0	-12770
[�x	-12771
\A�	-12772
\f�	-12773
bW�	-12774
b�X	-12775
dW�	-12776
lo�	-12777
m�0	-12778
|�	-12779
|%�	-12780
|y�	-12781
�_	-12782
▁.�	-12783
	-12784
%u	-12785
,C	-12786
2(	-12787
2V	-12788
63	-12789
H	-12790
I?	-12791
OF	-12792
P	-12793
]>	-12794
qS	-12795
qw	-12796
:�	-12797
J�	-12798
�	-12799
L�	-12800
{�	-12801
)�	-12802
*�0	-12803
0�k	-12804
8�o	-12805
AU�	-12806
B�x	-12807
J�X	-12808
QB�	-12809
QR�	-12810
R�	-12811
T(�	-12812
Tj�	-12813
\Q�	-12814
a�	-12815
a9�	-12816
b�	-12817
b2�	-12818
bI�	-12819
g�<	-12820
p*�	-12821
pK�	-12822
q�X	-12823
|�	-12824
|h�	-12825
|i�	-12826
~�^	-12827
▁S�	-12828
	-12829
"	-12830
%	-12831
+	-12832
Gu	-12833
O	-12834
P	-12835
Y	-12836
fc	-12837
z:	-12838
zW	-12839
�	-12840
I�	-12841
o�	-12842
�0	-12843
�	-12844
�x	-12845
�X	-12846
:�	-12847
$L�	-12848
&�4	-12849
'�^	-12850
)(�	-12851
*F�	-12852
3�	-12853
8�{	-12854
>�8	-12855
A�	-12856
Ah�	-12857
E�	-12858
Q(�	-12859
R�	-12860
RA�	-12861
RI�	-12862
\k�	-12863
a�	-12864
as�	-12865
b�	-12866
h�	-12867
ix�	-12868
p9�	-12869
pH�	-12870
pP�	-12871
�y	-12872
▁A�	-12873
(�������	-12874
e	-12875
	-12876
2H	-12877
3[	-12878
7T	-12879
;K	-12880
FP	-12881
G1	-12882
N	-12883
Nu	-12884
O	-12885
jP	-12886
q,	-12887
s+	-12888
s�	-12889
�0	-12890
�4	-12891
/�	-12892
?�	-12893
�k	-12894
t�	-12895
�k	-12896
<�	-12897
T�	-12898
�r	-12899
�	-12900
�^	-12901
"�t	-12902
*+�	-12903
*_�	-12904
.&�	-12905
1�<	-12906
3�4	-12907
3�r	-12908
4�o	-12909
5�	-12910
5q�	-12911
@�r	-12912
AS�	-12913
Ae�	-12914
C,�	-12915
Q'�	-12916
U�t	-12917
\S�	-12918
\s�	-12919
]�t	-12920
b*�	-12921
g�0	-12922
h9�	-12923
pl�	-12924
y�`	-12925
�/	-12926
I�������	-12927
	-12928
5"	-12929
:J	-12930
;c	-12931
>n	-12932
C	-12933
F	-12934
V	-12935
V&	-12936
j[	-12937
se	-12938
v'	-12939
y^	-12940
zK	-12941
�	-12942
�	-12943
x�	-12944
z�	-12945
�4	-12946
x�	-12947
�	-12948
�k	-12949
#L�	-12950
.�k	-12951
5�{	-12952
7q�	-12953
Dw�	-12954
Q�	-12955
RY�	-12956
T1�	-12957
TT�	-12958
X�o	-12959
\+�	-12960
`�<	-12961
`�`	-12962
aB�	-12963
al�	-12964
c�X	-12965
d�	-12966
d#�	-12967
p�	-12968
pJ�	-12969
po�	-12970
pp�	-12971
|�r	-12972
~�o	-12973
▁n�	-12974
▁o�	-12975
9�������	-12976
&	-12977
(3	-12978
8K	-12979
8n	-12980
>m	-12981
H	-12982
Hu	-12983
P	-12984
]U	-12985
j	-12986
jc	-12987
qe	-12988
v+	-12989
yS	-12990
4�	-12991
:�	-12992
�	-12993
6�	-12994
�s	-12995
�_	-12996
�~	-12997
"�	-12998
$�	-12999
$�	-13000
)�]	-13001
1�	-13002
77�	-13003
7x�	-13004
<�r	-13005
=>�	-13006
=�L	-13007
?�}	-13008
RS�	-13009
Ro�	-13010
Z�X	-13011
\�t	-13012
]�w	-13013
a�	-13014
b�	-13015
d�	-13016
d2�	-13017
d�0	-13018
h�`	-13019
i6�	-13020
k�0	-13021
k�g	-13022
u�^	-13023
v�X	-13024
|Q�	-13025
�^	-13026
	-13027
	-13028
[	-13029
	-13030
#	-13031
,	-13032
:S	-13033
=	-13034
@c	-13035
IZ	-13036
M#	-13037
OZ	-13038
Oe	-13039
V	-13040
Wc	-13041
f_	-13042
�	-13043
E�	-13044
S�	-13045
�`	-13046
^�	-13047
$P�	-13048
%�<	-13049
&�o	-13050
-�t	-13051
.�	-13052
/^�	-13053
1L�	-13054
1^�	-13055
3�`	-13056
5[�	-13057
5]�	-13058
6�	-13059
=�{	-13060
B�	-13061
B�	-13062
B#�	-13063
BS�	-13064
F�m	-13065
M�0	-13066
O�0	-13067
RL�	-13068
R�L	-13069
R�t	-13070
Td�	-13071
Y�X	-13072
c�s	-13073
d'�	-13074
p�	-13075
|1�	-13076
}�y	-13077
▁;�	-13078
▁p�	-13079
:Z	-13080
@	-13081
F[	-13082
W	-13083
Y&	-13084
jN	-13085
�	-13086
D�	-13087
t�	-13088
7�	-13089
�	-13090
:�	-13091
N�	-13092
�g	-13093
.�	-13094
5j�	-13095
7�	-13096
Cw�	-13097
D+�	-13098
R#�	-13099
R(�	-13100
T�t	-13101
Z�g	-13102
\�X	-13103
a�	-13104
a�w	-13105
h5�	-13106
v�m	-13107
▁(�	-13108
f�������	-13109
i	-13110
U	-13111
E	-13112
	-13113
#	-13114
',	-13115
'P	-13116
+-	-13117
23	-13118
F	-13119
G	-13120
JV	-13121
M	-13122
f	-13123
q	-13124
�	-13125
�	-13126
�r	-13127
�	-13128
D�	-13129
|�	-13130
]�	-13131
"/�	-13132
$%�	-13133
)%�	-13134
)9�	-13135
)N�	-13136
BC�	-13137
K�r	-13138
Q�	-13139
Q�	-13140
QI�	-13141
RU�	-13142
RZ�	-13143
Rd�	-13144
TJ�	-13145
Tz�	-13146
\�	-13147
\E�	-13148
aH�	-13149
af�	-13150
b�	-13151
b+�	-13152
bJ�	-13153
dY�	-13154
h�	-13155
h�	-13156
h�t	-13157
k�	-13158
p�	-13159
pD�	-13160
s�0	-13161
w�^	-13162
~�w	-13163
▁D�	-13164
����	-13165
	-13166
1!	-13167
3	-13168
5!	-13169
>,	-13170
@U	-13171
G	-13172
I-	-13173
W	-13174
W&	-13175
^Z	-13176
f	-13177
j	-13178
qs	-13179
ze	-13180
C�	-13181
V�	-13182
�0	-13183
N�	-13184
/�	-13185
[�	-13186
^�	-13187
)�	-13188
*;�	-13189
*�4	-13190
0�	-13191
3�X	-13192
52�	-13193
5M�	-13194
7�x	-13195
>�	-13196
B[�	-13197
D1�	-13198
EA�	-13199
F�X	-13200
K�g	-13201
M�k	-13202
Q�	-13203
R>�	-13204
R@�	-13205
To�	-13206
\W�	-13207
\d�	-13208
`�o	-13209
a�	-13210
a�	-13211
a?�	-13212
a{�	-13213
bM�	-13214
bY�	-13215
d�	-13216
h8�	-13217
i�/	-13218
l6�	-13219
n�t	-13220
r�/	-13221
w�~	-13222
}�~	-13223
▁�	-13224
▁{�	-13225
=	-13226
	-13227
4,	-13228
9	-13229
9M	-13230
>Z	-13231
H=	-13232
JU	-13233
U6	-13234
u[	-13235
0�	-13236
L�	-13237
S�	-13238
�w	-13239
�t	-13240
,�	-13241
D�	-13242
�X	-13243
V�	-13244
�	-13245
+�	-13246
$E�	-13247
)|�	-13248
*%�	-13249
5�m	-13250
6�	-13251
7^�	-13252
A�	-13253
A#�	-13254
D)�	-13255
E:�	-13256
Eq�	-13257
Gg�	-13258
G�`	-13259
Q<�	-13260
Rx�	-13261
T4�	-13262
[�g	-13263
]�r	-13264
_�o	-13265
a,�	-13266
a�r	-13267
b,�	-13268
bH�	-13269
bS�	-13270
f�{	-13271
k�w	-13272
l�0	-13273
p#�	-13274
z�t	-13275
}�w	-13276
�~	-13277
▁�	-13278
▁P�	-13279
▁�`	-13280
K�������	-13281
	-13282
Z	-13283
	-13284
	-13285
8e	-13286
>	-13287
F	-13288
H	-13289
I	-13290
Y%	-13291
]?	-13292
fn	-13293
j	-13294
j;	-13295
l#	-13296
li	-13297
s&	-13298
}n	-13299
�	-13300
Z�	-13301
,�	-13302
e�	-13303
T�	-13304
�o	-13305
�x	-13306
�_	-13307
%�	-13308
K�	-13309
-�	-13310
�	-13311
'�	-13312
�`	-13313
�	-13314
�	-13315
&�{	-13316
)h�	-13317
*W�	-13318
*[�	-13319
71�	-13320
AK�	-13321
C�0	-13322
D�	-13323
I�t	-13324
O�:	-13325
O�N	-13326
QA�	-13327
RF�	-13328
R]�	-13329
R�`	-13330
T,�	-13331
T`�	-13332
\$�	-13333
a�	-13334
a�`	-13335
b6�	-13336
bj�	-13337
d�	-13338
d�	-13339
dD�	-13340
h|�	-13341
n�^	-13342
p�:	-13343
p�w	-13344
t�0	-13345
u0�	-13346
|�	-13347
|/�	-13348
▁Z�	-13349
H�������	-13350
i	-13351
,	-13352
6	-13353
8+	-13354
@	-13355
G.	-13356
OY	-13357
V1	-13358
W-	-13359
u	-13360
ui	-13361
�	-13362
o�	-13363
+�	-13364
�r	-13365
o�	-13366
X�	-13367
�K	-13368
o�	-13369
y�	-13370
�	-13371
"L�	-13372
$�	-13373
$N�	-13374
).�	-13375
)U�	-13376
)�X	-13377
1=�	-13378
4�0	-13379
5Z�	-13380
5r�	-13381
=:�	-13382
A|�	-13383
BG�	-13384
E�	-13385
E�:	-13386
N�X	-13387
O�_	-13388
Q%�	-13389
QT�	-13390
R'�	-13391
X�g	-13392
\u�	-13393
`�^	-13394
a�	-13395
b8�	-13396
b9�	-13397
c�r	-13398
d�	-13399
dN�	-13400
h0�	-13401
i�o	-13402
k�]	-13403
n�w	-13404
w�;	-13405
|!�	-13406
▁�	-13407
▁j�	-13408
1	-13409
	-13410
9	-13411
>e	-13412
@	-13413
@C	-13414
F	-13415
F	-13416
G!	-13417
IN	-13418
J	-13419
O	-13420
W[	-13421
]	-13422
s	-13423
zN	-13424
,�	-13425
�	-13426
2�	-13427
,�	-13428
�q	-13429
�k	-13430
^�	-13431
�t	-13432
C�	-13433
y�	-13434
;�	-13435
�0	-13436
8�	-13437
�`	-13438
"^�	-13439
(�g	-13440
)H�	-13441
)V�	-13442
-�o	-13443
5U�	-13444
>�o	-13445
B?�	-13446
ML�	-13447
QG�	-13448
\T�	-13449
b�	-13450
bs�	-13451
d�X	-13452
pS�	-13453
	-13454
/S	-13455
=C	-13456
>	-13457
?Z	-13458
G	-13459
H	-13460
I&	-13461
f	-13462
l	-13463
m2	-13464
n9	-13465
vY	-13466
|E	-13467
(�	-13468
�	-13469
#�	-13470
�o	-13471
")�	-13472
$*�	-13473
*^�	-13474
2�X	-13475
3�{	-13476
5L�	-13477
7�	-13478
BI�	-13479
O�^	-13480
Q7�	-13481
Qf�	-13482
R�	-13483
Te�	-13484
Y�g	-13485
Z�y	-13486
\�	-13487
\%�	-13488
a�	-13489
a�	-13490
a�	-13491
b#�	-13492
c�	-13493
e�X	-13494
hQ�	-13495
hj�	-13496
l�q	-13497
n�o	-13498
p�L	-13499
p�t	-13500
|�	-13501
|U�	-13502
▁,�	-13503
▁u�	-13504
#	-13505
[	-13506
"D	-13507
%=	-13508
(	-13509
8&	-13510
:m	-13511
C.	-13512
G	-13513
K	-13514
Z=	-13515
lM	-13516
z	-13517
e�	-13518
{�	-13519
�	-13520
�4	-13521
�X	-13522
(�	-13523
1�	-13524
,�	-13525
^�	-13526
�	-13527
;�	-13528
�L	-13529
�<	-13530
�w	-13531
!&�	-13532
!�0	-13533
$�	-13534
&�`	-13535
)�	-13536
*�X	-13537
1�	-13538
7�	-13539
>�^	-13540
A�	-13541
B%�	-13542
BL�	-13543
Bg�	-13544
D�	-13545
Q�	-13546
Q�	-13547
R�	-13548
RN�	-13549
R�k	-13550
T�	-13551
TB�	-13552
Y�y	-13553
\�	-13554
\�	-13555
]�X	-13556
a5�	-13557
b=�	-13558
bC�	-13559
c�m	-13560
h�	-13561
k�o	-13562
l�L	-13563
pI�	-13564
q�y	-13565
r�X	-13566
r�{	-13567
z�o	-13568
z�}	-13569
|j�	-13570
���}�	-13571
����w	-13572
-�������	-13573
	-13574
N	-13575
P	-13576
U	-13577
,c	-13578
4	-13579
:?	-13580
=U	-13581
C	-13582
Z	-13583
jV	-13584
l	-13585
l.	-13586
~S	-13587
�	-13588
}�	-13589
0�	-13590
�	-13591
�	-13592
F�	-13593
�X	-13594
�r	-13595
7�	-13596
�	-13597
�g	-13598
!,�	-13599
"�	-13600
"J�	-13601
'�t	-13602
)0�	-13603
)v�	-13604
/�t	-13605
3�^	-13606
B,�	-13607
Db�	-13608
EW�	-13609
M�t	-13610
M�y	-13611
O�`	-13612
Q�X	-13613
R�	-13614
RM�	-13615
T�	-13616
T6�	-13617
Ta�	-13618
T�X	-13619
[<�	-13620
`�/	-13621
aP�	-13622
a\�	-13623
b�	-13624
bP�	-13625
g�k	-13626
h�	-13627
h�L	-13628
l�<	-13629
n�r	-13630
r�q	-13631
ux�	-13632
u�o	-13633
z�k	-13634
{�t	-13635
|J�	-13636
|�^	-13637
▁6�	-13638
,	-13639
@	-13640
B	-13641
F(	-13642
KU	-13643
O.	-13644
OM	-13645
OS	-13646
S	-13647
vL	-13648
zn	-13649
Z�	-13650
x�	-13651
�g	-13652
�	-13653
�g	-13654
+�	-13655
F�	-13656
�	-13657
"?�	-13658
$K�	-13659
(�X	-13660
*G�	-13661
.m�	-13662
.�/	-13663
5�	-13664
6_�	-13665
B'�	-13666
Q�	-13667
Qc�	-13668
R�	-13669
R�	-13670
RC�	-13671
Rj�	-13672
TE�	-13673
T�o	-13674
[�r	-13675
\�	-13676
\�	-13677
ap�	-13678
a�L	-13679
bX�	-13680
d-�	-13681
f�t	-13682
h�	-13683
l4�	-13684
t�t	-13685
w�0	-13686
|�	-13687
|�t	-13688
▁m�	-13689
▁�o	-13690
e�������	-13691
m�������	-13692
	-13693
	-13694
7	-13695
9(	-13696
9-	-13697
:_	-13698
>V	-13699
FM	-13700
WM	-13701
YP	-13702
ZM	-13703
u	-13704
�	-13705
F�	-13706
�o	-13707
�q	-13708
�	-13709
X�	-13710
/�	-13711
'�	-13712
�^	-13713
O�	-13714
"�X	-13715
)�	-13716
*�P	-13717
-�k	-13718
6E�	-13719
>�L	-13720
A8�	-13721
A�t	-13722
B-�	-13723
Bm�	-13724
B�L	-13725
P�k	-13726
QC�	-13727
Q]�	-13728
Qu�	-13729
RX�	-13730
Rg�	-13731
R�J	-13732
T�	-13733
T�	-13734
[�w	-13735
\�	-13736
a=�	-13737
aV�	-13738
c�L	-13739
e�g	-13740
g�]	-13741
hx�	-13742
t�;	-13743
t�X	-13744
|p�	-13745
▁:�	-13746
▁M�	-13747
▁`�	-13748
▁|�	-13749
,	-13750
8	-13751
![	-13752
/	-13753
4N	-13754
4	-13755
9	-13756
C	-13757
I	-13758
K	-13759
On	-13760
WN	-13761
Z	-13762
c	-13763
c.	-13764
e	-13765
j	-13766
j?	-13767
m	-13768
}	-13769
C�	-13770
�{	-13771
0�	-13772
N�	-13773
�^	-13774
�g	-13775
�`	-13776
o�	-13777
~�	-13778
�X	-13779
O�	-13780
�w	-13781
4�	-13782
k�	-13783
":�	-13784
)Y�	-13785
*�	-13786
3,�	-13787
@�X	-13788
QX�	-13789
Q�r	-13790
Rp�	-13791
R�0	-13792
T�	-13793
T+�	-13794
T_�	-13795
T�{	-13796
U�L	-13797
a'�	-13798
a)�	-13799
b/�	-13800
c�]	-13801
e�`	-13802
h2�	-13803
ib�	-13804
l�X	-13805
l�r	-13806
p�	-13807
u�y	-13808
w�`	-13809
{�^	-13810
▁�X	-13811
	-13812
$	-13813
/	-13814
7	-13815
9	-13816
@H	-13817
A	-13818
K	-13819
_P	-13820
q	-13821
z	-13822
`	-13823
�	-13824
�{	-13825
�<	-13826
:�	-13827
�	-13828
"�	-13829
"�`	-13830
)�	-13831
)I�	-13832
)i�	-13833
1&�	-13834
5�L	-13835
5�w	-13836
;�X	-13837
<�X	-13838
>�?	-13839
AW�	-13840
A�g	-13841
B�0	-13842
D7�	-13843
E�	-13844
N�g	-13845
Q)�	-13846
QF�	-13847
W�{	-13848
aU�	-13849
an�	-13850
b?�	-13851
c�t	-13852
h)�	-13853
i�t	-13854
l�	-13855
|K�	-13856
����{	-13857
�������	-13858
s�������	-13859
	-13860
%c	-13861
@	-13862
F@	-13863
Fi	-13864
SM	-13865
U	-13866
Vi	-13867
e	-13868
f3	-13869
~n	-13870
-�	-13871
�X	-13872
#�	-13873
f�	-13874
�r	-13875
~�	-13876
�o	-13877
�r	-13878
�_	-13879
�L	-13880
�>	-13881
�<	-13882
�/	-13883
"�<	-13884
#�o	-13885
$&�	-13886
$,�	-13887
(�k	-13888
/�{	-13889
5y�	-13890
=y�	-13891
=�8	-13892
@�t	-13893
A�	-13894
AE�	-13895
D,�	-13896
L�0	-13897
O�g	-13898
Q�	-13899
Ry�	-13900
T$�	-13901
Tx�	-13902
\)�	-13903
\N�	-13904
\V�	-13905
\�k	-13906
_�<	-13907
_�{	-13908
a!�	-13909
a>�	-13910
a�y	-13911
b�	-13912
d�	-13913
d$�	-13914
k�<	-13915
p�	-13916
p�	-13917
v�^	-13918
{�;	-13919
|)�	-13920
▁�	-13921
▁}�	-13922
	-13923
6	-13924
#	-13925
+	-13926
26	-13927
V3	-13928
j	-13929
s?	-13930
}?	-13931
H�	-13932
�g	-13933
H�	-13934
)�	-13935
o�	-13936
c�	-13937
&�	-13938
�o	-13939
�o	-13940
�{	-13941
�;	-13942
"�	-13943
)�	-13944
)#�	-13945
+�o	-13946
.�	-13947
1�x	-13948
2�t	-13949
3�s	-13950
4�t	-13951
9�`	-13952
=�g	-13953
A�X	-13954
D$�	-13955
DC�	-13956
N�~	-13957
Q�	-13958
Qd�	-13959
Qq�	-13960
R�	-13961
\�]	-13962
aq�	-13963
c�^	-13964
d�	-13965
f�k	-13966
g�w	-13967
h�r	-13968
l�t	-13969
p'�	-13970
s�L	-13971
z�z	-13972
	-13973
.	-13974
u	-13975
%[	-13976
'	-13977
'#	-13978
'=	-13979
/;	-13980
:@	-13981
H	-13982
J8	-13983
P	-13984
j	-13985
j#	-13986
�4	-13987
�t	-13988
)�	-13989
F�	-13990
�	-13991
�_	-13992
�	-13993
5�	-13994
:�	-13995
�t	-13996
Z�	-13997
�	-13998
�	-13999
)E�	-14000
)y�	-14001
.'�	-14002
/�_	-14003
2�r	-14004
7�r	-14005
:�r	-14006
;�8	-14007
AC�	-14008
A�0	-14009
E&�	-14010
Q�	-14011
Q>�	-14012
R.�	-14013
S�o	-14014
U�0	-14015
W�L	-14016
\�	-14017
\j�	-14018
\�^	-14019
]�q	-14020
]�z	-14021
b�	-14022
bx�	-14023
d�	-14024
hr�	-14025
h�y	-14026
s�w	-14027
v�L	-14028
v�	-14029
z�L	-14030
{�0	-14031
|�	-14032
|�	-14033
|�	-14034
&�������	-14035
c	-14036
C	-14037
+	-14038
,;	-14039
9U	-14040
KM	-14041
P	-14042
PH	-14043
�k	-14044
�	-14045
�	-14046
3�	-14047
7�	-14048
H�	-14049
�z	-14050
"Z�	-14051
$�x	-14052
*e�	-14053
*�x	-14054
+�0	-14055
5�	-14056
;�`	-14057
<�t	-14058
A�	-14059
E�	-14060
Ex�	-14061
I�r	-14062
R�	-14063
R!�	-14064
TI�	-14065
TL�	-14066
V�o	-14067
V�y	-14068
dG�	-14069
e�t	-14070
h�g	-14071
p�	-14072
u�0	-14073
v�k	-14074
|�	-14075
|L�	-14076
▁k�	-14077
H	-14078
%	-14079
&G	-14080
&c	-14081
+	-14082
.!	-14083
>2	-14084
OW	-14085
V	-14086
V	-14087
h!	-14088
l	-14089
�k	-14090
�^	-14091
�	-14092
�	-14093
!�	-14094
$�	-14095
t�	-14096
s�	-14097
�m	-14098
�	-14099
(�L	-14100
*o�	-14101
/�`	-14102
1�	-14103
1�`	-14104
5t�	-14105
=9�	-14106
=�m	-14107
A�	-14108
AG�	-14109
B�	-14110
BJ�	-14111
E#�	-14112
ER�	-14113
N�k	-14114
O�;	-14115
QY�	-14116
Qb�	-14117
Qi�	-14118
Q�t	-14119
R�	-14120
S�X	-14121
T�	-14122
T|�	-14123
[�X	-14124
[�y	-14125
\�	-14126
]�0	-14127
^�<	-14128
bG�	-14129
dR�	-14130
f�X	-14131
i0�	-14132
iU�	-14133
iu�	-14134
pX�	-14135
pk�	-14136
|4�	-14137
}�r	-14138
	-14139
M	-14140
)D	-14141
+	-14142
,(	-14143
37	-14144
9	-14145
?U	-14146
YU	-14147
Z	-14148
]n	-14149
|3	-14150
�	-14151
*�	-14152
R�	-14153
�r	-14154
�	-14155
P�	-14156
�^	-14157
�	-14158
Z�	-14159
k�	-14160
{�	-14161
�z	-14162
>�	-14163
"E�	-14164
"�S	-14165
$�	-14166
%�k	-14167
&�	-14168
)*�	-14169
)m�	-14170
*'�	-14171
.g�	-14172
0�X	-14173
7E�	-14174
;�r	-14175
B�^	-14176
O�v	-14177
Q5�	-14178
R�	-14179
R)�	-14180
T�k	-14181
V�0	-14182
V�k	-14183
\@�	-14184
b$�	-14185
bN�	-14186
d�	-14187
dK�	-14188
d�g	-14189
h�w	-14190
j�o	-14191
l`�	-14192
p\�	-14193
pn�	-14194
q�^	-14195
v�`	-14196
|Y�	-14197
|}�	-14198
}�s	-14199
▁d�	-14200
G	-14201
W	-14202
6	-14203
!	-14204
+#	-14205
:	-14206
C	-14207
F;	-14208
Y	-14209
e	-14210
nU	-14211
}S	-14212
�	-14213
+�	-14214
X�	-14215
)�	-14216
+�	-14217
�k	-14218
�	-14219
�	-14220
$�	-14221
$J�	-14222
$W�	-14223
)-�	-14224
*�g	-14225
3�	-14226
5�	-14227
50�	-14228
7�?	-14229
9�X	-14230
;�k	-14231
<�_	-14232
=�r	-14233
B1�	-14234
DQ�	-14235
EI�	-14236
EU�	-14237
M�r	-14238
R/�	-14239
T#�	-14240
V�^	-14241
[�s	-14242
\U�	-14243
\e�	-14244
a}�	-14245
a�k	-14246
a�o	-14247
bF�	-14248
bc�	-14249
dL�	-14250
da�	-14251
h�	-14252
l�_	-14253
pm�	-14254
u�z	-14255
|e�	-14256
|�y	-14257
▁g�	-14258
/]	-14259
;	-14260
IH	-14261
fZ	-14262
f[	-14263
m�	-14264
^�	-14265
�r	-14266
�	-14267
P�	-14268
T�	-14269
L�	-14270
�_	-14271
�O	-14272
"�	-14273
"P�	-14274
)�	-14275
)+�	-14276
)p�	-14277
3�L	-14278
5s�	-14279
7�v	-14280
=?�	-14281
?�g	-14282
At�	-14283
A�L	-14284
H�X	-14285
K�k	-14286
Q�	-14287
Q�~	-14288
R}�	-14289
Tr�	-14290
Z�o	-14291
\�	-14292
\4�	-14293
\i�	-14294
\q�	-14295
b�	-14296
bo�	-14297
b�t	-14298
d)�	-14299
dt�	-14300
dx�	-14301
f�L	-14302
h�	-14303
hT�	-14304
h�k	-14305
p�	-14306
p�	-14307
|�	-14308
[	-14309
V	-14310
1	-14311
	-14312
(7	-14313
+	-14314
+c	-14315
,#	-14316
/W	-14317
2	-14318
4K	-14319
8#	-14320
F	-14321
J&	-14322
J@	-14323
JG	-14324
JZ	-14325
P-	-14326
SO	-14327
eK	-14328
j'	-14329
}K	-14330
}]	-14331
Y�	-14332
j�	-14333
�	-14334
�	-14335
�	-14336
�g	-14337
�	-14338
.�	-14339
Y�	-14340
�z	-14341
@�	-14342
"N�	-14343
$�L	-14344
%�g	-14345
)�	-14346
)�	-14347
)~�	-14348
*�	-14349
-�X	-14350
5�	-14351
6�	-14352
9<�	-14353
;�L	-14354
=�^	-14355
>�t	-14356
D'�	-14357
D\�	-14358
Dy�	-14359
D�0	-14360
D�r	-14361
E@�	-14362
Ec�	-14363
Q#�	-14364
T�	-14365
T2�	-14366
T\�	-14367
T]�	-14368
V�L	-14369
W�^	-14370
_�	-14371
`�z	-14372
a/�	-14373
b0�	-14374
bL�	-14375
bg�	-14376
d�	-14377
dz�	-14378
hL�	-14379
hP�	-14380
hY�	-14381
k�v	-14382
lm�	-14383
t�g	-14384
v�:	-14385
|*�	-14386
|�z	-14387
▁5�	-14388
▁i�	-14389
	-14390
Y	-14391
	-14392
	-14393
%	-14394
(	-14395
2	-14396
81	-14397
=1	-14398
=6	-14399
PM	-14400
q_	-14401
s�	-14402
�t	-14403
]�	-14404
/�	-14405
�{	-14406
g�	-14407
�t	-14408
(�	-14409
�	-14410
3�	-14411
x�	-14412
!9�	-14413
"�	-14414
"c�	-14415
%�0	-14416
)'�	-14417
)6�	-14418
*&�	-14419
7�	-14420
<�L	-14421
A/�	-14422
B�	-14423
BY�	-14424
C�k	-14425
C�v	-14426
D�	-14427
D<�	-14428
E�	-14429
F�L	-14430
G#�	-14431
J�^	-14432
O�y	-14433
Q@�	-14434
Q�S	-14435
S�s	-14436
TM�	-14437
TZ�	-14438
Tq�	-14439
X�k	-14440
\�	-14441
\I�	-14442
aA�	-14443
b�	-14444
bi�	-14445
bp�	-14446
by�	-14447
b�4	-14448
h(�	-14449
h+�	-14450
hU�	-14451
pc�	-14452
v�0	-14453
v�g	-14454
{�y	-14455
~�g	-14456
▁[�	-14457
▁�t	-14458
	-14459
,H	-14460
2	-14461
Z	-14462
f	-14463
fm	-14464
q?	-14465
�	-14466
�	-14467
&�	-14468
�<	-14469
L�	-14470
�	-14471
�	-14472
�r	-14473
'�	-14474
\�	-14475
)�	-14476
$H�	-14477
$e�	-14478
%�L	-14479
)1�	-14480
*�	-14481
-�{	-14482
.R�	-14483
3`�	-14484
66�	-14485
7�/	-14486
7�4	-14487
7�}	-14488
=�<	-14489
>�{	-14490
?�>	-14491
?�~	-14492
Dx�	-14493
E�	-14494
E)�	-14495
Q�	-14496
RE�	-14497
ai�	-14498
dE�	-14499
dr�	-14500
iT�	-14501
ic�	-14502
v�z	-14503
|�	-14504
|�0	-14505
~�~	-14506
�<	-14507
▁�	-14508
▁a�	-14509
����g	-14510
2�������	-14511
2c	-14512
8m	-14513
IV	-14514
PC	-14515
Z?	-14516
j&	-14517
qc	-14518
X	-14519
G�	-14520
h�	-14521
�w	-14522
"�	-14523
K�	-14524
#�	-14525
0�	-14526
�	-14527
�	-14528
L�	-14529
P�	-14530
�g	-14531
&�	-14532
�x	-14533
�	-14534
U�	-14535
�~	-14536
�m	-14537
$�	-14538
%�t	-14539
*H�	-14540
*M�	-14541
-�^	-14542
-�s	-14543
.(�	-14544
.�g	-14545
.�s	-14546
.�y	-14547
5|�	-14548
B�	-14549
B�	-14550
BO�	-14551
D�	-14552
Eh�	-14553
E�X	-14554
Q�	-14555
Tg�	-14556
[�	-14557
]�s	-14558
b�	-14559
d�	-14560
d/�	-14561
f�^	-14562
h�	-14563
j�r	-14564
▁!�	-14565
▁�L	-14566
	-14567
u	-14568
	-14569
u	-14570
	-14571
	-14572
'C	-14573
'M	-14574
-	-14575
-i	-14576
@	-14577
P	-14578
e	-14579
q:	-14580
�`	-14581
)�	-14582
@�	-14583
M�	-14584
}�	-14585
�	-14586
�	-14587
\�	-14588
�x	-14589
k�	-14590
�X	-14591
O�	-14592
�x	-14593
"�x	-14594
$�	-14595
$)�	-14596
$R�	-14597
))�	-14598
)R�	-14599
)l�	-14600
*�	-14601
,�t	-14602
.e�	-14603
1�r	-14604
2�L	-14605
3�]	-14606
5�	-14607
5u�	-14608
7&�	-14609
7�y	-14610
9:�	-14611
9�8	-14612
K�{	-14613
Q�g	-14614
R�	-14615
R�	-14616
TC�	-14617
Tt�	-14618
X�L	-14619
\�	-14620
\(�	-14621
^�^	-14622
a]�	-14623
am�	-14624
bD�	-14625
hn�	-14626
nm�	-14627
p�	-14628
z�s	-14629
|�	-14630
▁"�	-14631
����t	-14632
%	-14633
	-14634
,U	-14635
-#	-14636
@M	-14637
GM	-14638
I#	-14639
S	-14640
YF	-14641
q	-14642
vc	-14643
�	-14644
U�	-14645
�	-14646
�	-14647
�o	-14648
/�	-14649
�o	-14650
�	-14651
k�	-14652
[�	-14653
q�	-14654
�y	-14655
�L	-14656
!F�	-14657
"+�	-14658
$Z�	-14659
$i�	-14660
)M�	-14661
*�	-14662
,�w	-14663
1t�	-14664
4�`	-14665
5&�	-14666
5)�	-14667
7g�	-14668
7u�	-14669
=�/	-14670
=�y	-14671
C�`	-14672
D>�	-14673
E�L	-14674
G�	-14675
G�X	-14676
K�y	-14677
O�?	-14678
Q�	-14679
R�	-14680
Ri�	-14681
S�t	-14682
S�w	-14683
T9�	-14684
T[�	-14685
\�	-14686
\n�	-14687
\�o	-14688
`�y	-14689
a#�	-14690
a�^	-14691
j�^	-14692
s�:	-14693
w�r	-14694
y�{	-14695
{�`	-14696
|`�	-14697
▁#�	-14698
▁�	-14699
▁�r	-14700
�������	-14701
	-14702
	-14703
+	-14704
>	-14705
Ju	-14706
KC	-14707
P[	-14708
SV	-14709
YV	-14710
ZV	-14711
m9	-14712
;	-14713
*�	-14714
6�	-14715
�k	-14716
"!�	-14717
"�_	-14718
$I�	-14719
$�r	-14720
)2�	-14721
,�X	-14722
1�{	-14723
=�_	-14724
=�z	-14725
A�	-14726
A<�	-14727
Ai�	-14728
BP�	-14729
D!�	-14730
E<�	-14731
N�O	-14732
Q�	-14733
Q6�	-14734
Q;�	-14735
T)�	-14736
T<�	-14737
^�w	-14738
_�0	-14739
a+�	-14740
a;�	-14741
d&�	-14742
h}�	-14743
p�k	-14744
w�L	-14745
|u�	-14746
~�;	-14747
▁�w	-14748
Y�������	-14749
'U	-14750
'[	-14751
(1	-14752
@F	-14753
@V	-14754
G6	-14755
I	-14756
JH	-14757
S	-14758
W	-14759
Y	-14760
e&	-14761
v2	-14762
T�	-14763
�s	-14764
I�	-14765
�y	-14766
�	-14767
�t	-14768
.�	-14769
'�	-14770
S�	-14771
H�	-14772
�r	-14773
�	-14774
�`	-14775
z�	-14776
�	-14777
(�	-14778
K�	-14779
�L	-14780
"�	-14781
"U�	-14782
*<�	-14783
*s�	-14784
.V�	-14785
.a�	-14786
0�,	-14787
1�L	-14788
5l�	-14789
7A�	-14790
=�?	-14791
?�w	-14792
B�	-14793
C�]	-14794
C�o	-14795
D�	-14796
D�L	-14797
Ql�	-14798
T�	-14799
TG�	-14800
TW�	-14801
Ti�	-14802
X�r	-14803
\5�	-14804
\O�	-14805
`�g	-14806
b�	-14807
b�	-14808
b�	-14809
b[�	-14810
d@�	-14811
e�o	-14812
f�]	-14813
hM�	-14814
j�g	-14815
l?�	-14816
p$�	-14817
pM�	-14818
w�?	-14819
|P�	-14820
|�k	-14821
~�<	-14822
=	-14823
%U	-14824
,	-14825
-	-14826
8C	-14827
K	-14828
N	-14829
PK	-14830
Y	-14831
Z;	-14832
e#	-14833
ii	-14834
j	-14835
q	-14836
8�	-14837
v�	-14838
!�	-14839
5�	-14840
�^	-14841
�{	-14842
�k	-14843
%�	-14844
c�	-14845
�	-14846
�	-14847
'�	-14848
�	-14849
"�	-14850
"n�	-14851
"�/	-14852
$(�	-14853
$A�	-14854
,�g	-14855
.J�	-14856
.t�	-14857
3g�	-14858
5G�	-14859
;�}	-14860
A)�	-14861
Ds�	-14862
E�	-14863
Ey�	-14864
F�t	-14865
N�^	-14866
R1�	-14867
R:�	-14868
R^�	-14869
Rz�	-14870
R�r	-14871
T�	-14872
T�	-14873
a�	-14874
b@�	-14875
f�0	-14876
l:�	-14877
p�	-14878
p�	-14879
s�`	-14880
|n�	-14881
|�>	-14882
}�z	-14883
▁�	-14884
+�������	-14885
%	-14886
W	-14887
	-14888
,	-14889
IC	-14890
N2	-14891
O	-14892
Z#	-14893
e?	-14894
I�	-14895
6�	-14896
�r	-14897
]�	-14898
�<	-14899
0�	-14900
�	-14901
�	-14902
Y�	-14903
a�	-14904
�k	-14905
�r	-14906
�	-14907
"�	-14908
$�	-14909
)�	-14910
-L�	-14911
5�	-14912
7[�	-14913
9�J	-14914
B)�	-14915
B*�	-14916
D�	-14917
Ee�	-14918
Gx�	-14919
K�~	-14920
Qn�	-14921
R<�	-14922
T�	-14923
T�	-14924
T>�	-14925
Z�r	-14926
[k�	-14927
\�`	-14928
_�r	-14929
`�s	-14930
a[�	-14931
au�	-14932
b]�	-14933
b^�	-14934
f�`	-14935
k�`	-14936
o�/	-14937
o�^	-14938
pT�	-14939
r�y	-14940
u�/	-14941
|�	-14942
}�_	-14943
~�L	-14944
▁X�	-14945
S�������	-14946
	-14947
+	-14948
,	-14949
@2	-14950
F	-14951
O	-14952
Z	-14953
)�	-14954
�	-14955
/�	-14956
V�	-14957
�o	-14958
�g	-14959
�4	-14960
�<	-14961
$�	-14962
$@�	-14963
%�4	-14964
+�k	-14965
-�y	-14966
1�	-14967
3G�	-14968
7�	-14969
7@�	-14970
8�L	-14971
?�v	-14972
A�y	-14973
B$�	-14974
D2�	-14975
DW�	-14976
E�<	-14977
E�{	-14978
F�<	-14979
N�w	-14980
O�<	-14981
O�r	-14982
Qa�	-14983
Z�z	-14984
a7�	-14985
b)�	-14986
b;�	-14987
bz�	-14988
b�k	-14989
dP�	-14990
d{�	-14991
i�X	-14992
l�z	-14993
m�w	-14994
o�0	-14995
o�;	-14996
o�w	-14997
q�`	-14998
u�X	-14999
u�k	-15000
v�;	-15001
w�}	-15002
|>�	-15003
|g�	-15004
=	-15005
[	-15006
%	-15007
(i	-15008
6	-15009
8	-15010
K[	-15011
S	-15012
S	-15013
SC	-15014
f	-15015
q	-15016
�	-15017
;�	-15018
Q�	-15019
_�	-15020
$�	-15021
�o	-15022
J�	-15023
�	-15024
�	-15025
�y	-15026
�	-15027
�x	-15028
"�	-15029
)a�	-15030
.�L	-15031
/�^	-15032
1�t	-15033
3P�	-15034
4�r	-15035
5'�	-15036
5^�	-15037
5�~	-15038
7;�	-15039
8�r	-15040
A�	-15041
AY�	-15042
B9�	-15043
EG�	-15044
M�_	-15045
O�{	-15046
Q�	-15047
R�	-15048
R=�	-15049
R�g	-15050
T:�	-15051
b'�	-15052
b5�	-15053
bT�	-15054
d�	-15055
d(�	-15056
dU�	-15057
dg�	-15058
h�	-15059
h'�	-15060
l�]	-15061
p�	-15062
p.�	-15063
r�0	-15064
t�s	-15065
|�o	-15066
▁�	-15067
	-15068
M	-15069
&	-15070
'	-15071
-	-15072
57	-15073
@	-15074
K	-15075
K	-15076
f#	-15077
lC	-15078
nV	-15079
�	-15080
;�	-15081
�o	-15082
�	-15083
V�	-15084
f�	-15085
�	-15086
-�	-15087
:�	-15088
�	-15089
x�	-15090
^�	-15091
�r	-15092
�k	-15093
�	-15094
�	-15095
#�	-15096
I�	-15097
�{	-15098
!�	-15099
"S�	-15100
#�	-15101
&^�	-15102
&�k	-15103
'�	-15104
)j�	-15105
*�	-15106
*-�	-15107
*{�	-15108
.*�	-15109
.L�	-15110
1�	-15111
2�^	-15112
3�w	-15113
5*�	-15114
<�?	-15115
=�;	-15116
A�`	-15117
Bi�	-15118
F�0	-15119
Qk�	-15120
R,�	-15121
RT�	-15122
T�	-15123
T.�	-15124
X�X	-15125
Y�`	-15126
\�	-15127
\z�	-15128
a�	-15129
d�	-15130
h,�	-15131
h_�	-15132
hi�	-15133
ih�	-15134
j�:	-15135
j�k	-15136
m�{	-15137
o�t	-15138
r�J	-15139
u�m	-15140
w�X	-15141
|]�	-15142
|�X	-15143
▁�	-15144
	-15145
M	-15146
+	-15147
-U	-15148
8	-15149
=M	-15150
I	-15151
Z	-15152
j	-15153
mY	-15154
#�	-15155
c�	-15156
�g	-15157
�y	-15158
�	-15159
L�	-15160
s�	-15161
,�	-15162
�`	-15163
9�	-15164
G�	-15165
c�	-15166
g�	-15167
�	-15168
!�L	-15169
"3�	-15170
)�	-15171
)]�	-15172
1�/	-15173
4�/	-15174
5�>	-15175
9�?	-15176
A*�	-15177
Bb�	-15178
C�t	-15179
G�	-15180
K�/	-15181
O�~	-15182
Q&�	-15183
Q�^	-15184
Rq�	-15185
T�	-15186
T�	-15187
TF�	-15188
V0�	-15189
V�4	-15190
Z�L	-15191
\7�	-15192
dB�	-15193
h*�	-15194
hh�	-15195
hw�	-15196
j�`	-15197
o�g	-15198
pU�	-15199
z�0	-15200
|�<	-15201
▁�	-15202
▁�z	-15203
▁�{	-15204
	-15205
<	-15206
'c	-15207
+	-15208
8(	-15209
@=	-15210
G	-15211
Ku	-15212
O[	-15213
S	-15214
][	-15215
f%	-15216
j	-15217
n;	-15218
x�	-15219
R�	-15220
�	-15221
�0	-15222
�	-15223
�_	-15224
�	-15225
�o	-15226
�L	-15227
W�	-15228
�`	-15229
E�	-15230
!�	-15231
"B�	-15232
$�t	-15233
*L�	-15234
+�g	-15235
.�	-15236
1q�	-15237
2�4	-15238
5P�	-15239
5p�	-15240
=�>	-15241
A6�	-15242
AR�	-15243
Ad�	-15244
B;�	-15245
D�	-15246
Dc�	-15247
E^�	-15248
E�`	-15249
Fc�	-15250
RB�	-15251
RK�	-15252
\�0	-15253
aC�	-15254
b�	-15255
d�r	-15256
hc�	-15257
hf�	-15258
p%�	-15259
pR�	-15260
pZ�	-15261
t�:	-15262
v0�	-15263
v�t	-15264
v�y	-15265
2U	-15266
8N	-15267
>W	-15268
H3	-15269
I	-15270
Iu	-15271
N%	-15272
SU	-15273
e(	-15274
f	-15275
j=	-15276
jU	-15277
c�	-15278
g�	-15279
�	-15280
P�	-15281
7�	-15282
U�	-15283
�`	-15284
�	-15285
�	-15286
�/	-15287
�<	-15288
�:	-15289
�	-15290
x�	-15291
!�x	-15292
"�^	-15293
$�	-15294
$�	-15295
$a�	-15296
)P�	-15297
)_�	-15298
*�	-15299
*�	-15300
*g�	-15301
+�t	-15302
61�	-15303
6]�	-15304
7J�	-15305
7L�	-15306
:�?	-15307
@�L	-15308
AJ�	-15309
D�	-15310
D�	-15311
D.�	-15312
D3�	-15313
DF�	-15314
DG�	-15315
E.�	-15316
E7�	-15317
K�Y	-15318
M�X	-15319
Q[�	-15320
Q�	-15321
R�	-15322
Tb�	-15323
Tc�	-15324
V�w	-15325
b�	-15326
bZ�	-15327
c�	-15328
d<�	-15329
e�r	-15330
h�	-15331
iX�	-15332
l�^	-15333
pN�	-15334
pY�	-15335
{�m	-15336
|X�	-15337
|�s	-15338
~�z	-15339
▁h�	-15340
����^	-15341
(	-15342
	-15343
	-15344
;	-15345
'	-15346
+C	-15347
I%	-15348
J9	-15349
Ol	-15350
_W	-15351
e	-15352
mP	-15353
nC	-15354
qY	-15355
q^	-15356
�	-15357
>�	-15358
Y�	-15359
]�	-15360
�{	-15361
�O	-15362
_�	-15363
�	-15364
#�	-15365
L�	-15366
�	-15367
�	-15368
W�	-15369
�~	-15370
"�	-15371
"*�	-15372
"g�	-15373
$#�	-15374
$0�	-15375
(�r	-15376
)W�	-15377
*�	-15378
*E�	-15379
*S�	-15380
-�g	-15381
-�r	-15382
14�	-15383
3�<	-15384
5�	-15385
=�v	-15386
>�`	-15387
BE�	-15388
D�	-15389
D9�	-15390
D:�	-15391
DY�	-15392
D�`	-15393
E]�	-15394
Ew�	-15395
K�L	-15396
M�4	-15397
Q�:	-15398
R�	-15399
R$�	-15400
R8�	-15401
T�y	-15402
d�	-15403
d�	-15404
d�L	-15405
hs�	-15406
j�4	-15407
l�	-15408
r�L	-15409
r�t	-15410
u�~	-15411
{�~	-15412
▁c�	-15413
8�������	-15414
M	-15415
	-15416
2	-15417
8	-15418
8]	-15419
9	-15420
@3	-15421
P	-15422
Y	-15423
f'	-15424
mM	-15425
n	-15426
nF	-15427
v%	-15428
zL	-15429
�	-15430
?�	-15431
<�	-15432
�	-15433
`�	-15434
<�	-15435
�	-15436
;�	-15437
O�	-15438
]�	-15439
I�	-15440
e�	-15441
v�	-15442
q�	-15443
5�	-15444
�	-15445
g�	-15446
`�	-15447
�X	-15448
!f�	-15449
"�	-15450
"G�	-15451
"R�	-15452
$]�	-15453
)?�	-15454
+�{	-15455
.�	-15456
.@�	-15457
=�:	-15458
A\�	-15459
B�	-15460
Bq�	-15461
DX�	-15462
E>�	-15463
EJ�	-15464
I�X	-15465
Q?�	-15466
QW�	-15467
R3�	-15468
T@�	-15469
TN�	-15470
TP�	-15471
b�	-15472
b�	-15473
b�{	-15474
d8�	-15475
dJ�	-15476
d�k	-15477
ha�	-15478
h�:	-15479
i�	-15480
l�{	-15481
p�`	-15482
t�`	-15483
u�g	-15484
y�k	-15485
}�X	-15486
~�t	-15487
9	-15488
	-15489
3	-15490
u	-15491
	-15492
	-15493
!	-15494
+	-15495
+F	-15496
8H	-15497
8u	-15498
NG	-15499
�	-15500
.�	-15501
6�	-15502
�<	-15503
q�	-15504
z�	-15505
&�	-15506
z�	-15507
[�	-15508
�g	-15509
%�	-15510
�<	-15511
)�	-15512
_�	-15513
"V�	-15514
"]�	-15515
#�X	-15516
)!�	-15517
)A�	-15518
)s�	-15519
.0�	-15520
0�	-15521
1�]	-15522
5J�	-15523
7w�	-15524
>�X	-15525
?�	-15526
A�	-15527
Bw�	-15528
D�	-15529
Dj�	-15530
EL�	-15531
Q}�	-15532
Q�_	-15533
Rm�	-15534
Rw�	-15535
T-�	-15536
T�r	-15537
aF�	-15538
b�q	-15539
d�	-15540
f�o	-15541
f�y	-15542
h�	-15543
i�L	-15544
k�4	-15545
p�	-15546
p!�	-15547
pA�	-15548
y�	-15549
|�	-15550
|C�	-15551
|�v	-15552
}�>	-15553
▁�4	-15554
[	-15555
&	-15556
3	-15557
,	-15558
8	-15559
I	-15560
JC	-15561
Pl	-15562
j6	-15563
�	-15564
!�	-15565
�k	-15566
�	-15567
:�	-15568
�v	-15569
�`	-15570
4�	-15571
�r	-15572
*�	-15573
�t	-15574
�	-15575
S�	-15576
c�	-15577
$�	-15578
�g	-15579
"�L	-15580
#�k	-15581
)x�	-15582
*�	-15583
*t�	-15584
+�]	-15585
+�`	-15586
+�w	-15587
.�	-15588
.1�	-15589
/�w	-15590
1<�	-15591
6�<	-15592
9�t	-15593
>�>	-15594
@�{	-15595
B�	-15596
B@�	-15597
Bc�	-15598
Bs�	-15599
D�g	-15600
E�	-15601
E0�	-15602
E5�	-15603
K�q	-15604
NN�	-15605
QH�	-15606
Q�<	-15607
Q�w	-15608
RH�	-15609
Tm�	-15610
Z�}	-15611
\�	-15612
\�	-15613
ag�	-15614
c`�	-15615
d`�	-15616
h�	-15617
h�	-15618
hl�	-15619
i�k	-15620
k�~	-15621
n�z	-15622
p5�	-15623
r�>	-15624
u�L	-15625
y�r	-15626
{�s	-15627
|�	-15628
|,�	-15629
▁�	-15630
[	-15631
U	-15632
(	-15633
C	-15634
+	-15635
2l	-15636
8W	-15637
9G	-15638
H	-15639
I	-15640
K	-15641
NV	-15642
S&	-15643
W	-15644
Y3	-15645
YM	-15646
]O	-15647
j@	-15648
}e	-15649
}�	-15650
X�	-15651
�	-15652
A�	-15653
t�	-15654
�`	-15655
�	-15656
)�	-15657
*�	-15658
�	-15659
�4	-15660
d�	-15661
�^	-15662
s�	-15663
�	-15664
�	-15665
�{	-15666
"#�	-15667
"I�	-15668
$�	-15669
$2�	-15670
$q�	-15671
'G�	-15672
(�`	-15673
)�	-15674
)�	-15675
)r�	-15676
*�	-15677
*X�	-15678
-�J	-15679
1�	-15680
7p�	-15681
:�`	-15682
>�g	-15683
A`�	-15684
D�	-15685
De�	-15686
Dq�	-15687
E2�	-15688
R_�	-15689
Rf�	-15690
Rk�	-15691
TV�	-15692
b!�	-15693
b&�	-15694
dF�	-15695
h�	-15696
iQ�	-15697
j�<	-15698
n�;	-15699
n�<	-15700
~�0	-15701
▁�	-15702
3	-15703
=	-15704
	-15705
,&	-15706
-	-15707
OV	-15708
Z	-15709
Z(	-15710
f	-15711
�	-15712
>�	-15713
E�	-15714
H�	-15715
�	-15716
�g	-15717
0�	-15718
;�	-15719
�	-15720
L�	-15721
J�	-15722
Z�	-15723
!.�	-15724
"�	-15725
"'�	-15726
"�&	-15727
$�	-15728
$9�	-15729
$s�	-15730
%�v	-15731
)�	-15732
)q�	-15733
*�	-15734
*c�	-15735
*�	-15736
15�	-15737
5V�	-15738
6�	-15739
A�	-15740
A[�	-15741
A_�	-15742
A�r	-15743
B�	-15744
B�r	-15745
Cg�	-15746
D[�	-15747
E�	-15748
E3�	-15749
Gt�	-15750
O�/	-15751
P�g	-15752
P�r	-15753
Qg�	-15754
R6�	-15755
R[�	-15756
Rc�	-15757
T�	-15758
T�	-15759
T�	-15760
a�s	-15761
b�	-15762
bB�	-15763
cx�	-15764
dC�	-15765
d\�	-15766
h�	-15767
h\�	-15768
i�`	-15769
i�g	-15770
l�k	-15771
r�4	-15772
w�<	-15773
z�g	-15774
|.�	-15775
▁�:	-15776
2	-15777
%3	-15778
,	-15779
@	-15780
Z&	-15781
}>	-15782
U�	-15783
�k	-15784
�y	-15785
G�	-15786
e�	-15787
�y	-15788
`�	-15789
E�	-15790
�{	-15791
:�	-15792
d�	-15793
m�	-15794
�_	-15795
�r	-15796
"W�	-15797
$�	-15798
$�	-15799
)/�	-15800
**�	-15801
*Z�	-15802
1e�	-15803
1f�	-15804
5�	-15805
8�4	-15806
=;�	-15807
A�	-15808
A�^	-15809
C�z	-15810
DK�	-15811
Do�	-15812
E�	-15813
E!�	-15814
E}�	-15815
M�^	-15816
M�{	-15817
Q�	-15818
Rv�	-15819
WW�	-15820
\v�	-15821
a�q	-15822
a�	-15823
bK�	-15824
b�`	-15825
d,�	-15826
h�	-15827
i]�	-15828
t�o	-15829
ug�	-15830
z�~	-15831
{�?	-15832
|@�	-15833
	-15834
i	-15835
F	-15836
#	-15837
:/	-15838
;F	-15839
N[	-15840
Oj	-15841
W	-15842
c3	-15843
n#	-15844
n+	-15845
nH	-15846
xw	-15847
�	-15848
_�	-15849
�	-15850
�	-15851
-�	-15852
~�	-15853
@�	-15854
J�	-15855
h�	-15856
v�	-15857
�	-15858
:�	-15859
1�	-15860
�y	-15861
�	-15862
&�	-15863
G�	-15864
�`	-15865
�w	-15866
#�	-15867
K�	-15868
.�	-15869
]�	-15870
�X	-15871
�	-15872
!:�	-15873
"�	-15874
"2�	-15875
"u�	-15876
$/�	-15877
(�e	-15878
(�q	-15879
)`�	-15880
*`�	-15881
.n�	-15882
1@�	-15883
1H�	-15884
5g�	-15885
62�	-15886
7�	-15887
7I�	-15888
9�{	-15889
D�	-15890
D�	-15891
DB�	-15892
E,�	-15893
M�<	-15894
Q!�	-15895
Q3�	-15896
Q�s	-15897
RR�	-15898
RW�	-15899
Rl�	-15900
R~�	-15901
S�<	-15902
T�<	-15903
T�g	-15904
^�0	-15905
^�>	-15906
av�	-15907
bR�	-15908
dX�	-15909
dZ�	-15910
de�	-15911
d�	-15912
h�	-15913
hy�	-15914
o�N	-15915
p-�	-15916
p]�	-15917
pu�	-15918
r�P	-15919
r�`	-15920
u�	-15921
|l�	-15922
|�`	-15923
▁]�	-15924
����`	-15925
����v	-15926
l	-15927
	-15928
3	-15929
%l	-15930
'-	-15931
'V	-15932
,l	-15933
8	-15934
IG	-15935
K	-15936
WF	-15937
fF	-15938
fU	-15939
n&	-15940
qP	-15941
K�	-15942
�r	-15943
&�	-15944
�s	-15945
Z�	-15946
e�	-15947
x�	-15948
C�	-15949
W�	-15950
�s	-15951
�w	-15952
>�	-15953
d�	-15954
�<	-15955
�o	-15956
P�	-15957
�	-15958
"Y�	-15959
#�g	-15960
$`�	-15961
$~�	-15962
(�o	-15963
(�t	-15964
)G�	-15965
)Z�	-15966
)t�	-15967
*Y�	-15968
.W�	-15969
1�o	-15970
4�X	-15971
6f�	-15972
6q�	-15973
6�_	-15974
6�k	-15975
7�w	-15976
8�]	-15977
;�]	-15978
<�g	-15979
?�^	-15980
A&�	-15981
Be�	-15982
G�m	-15983
QO�	-15984
Qm�	-15985
S�k	-15986
T�	-15987
V�V	-15988
[�	-15989
\B�	-15990
\K�	-15991
a3�	-15992
b"�	-15993
b>�	-15994
bE�	-15995
bw�	-15996
dT�	-15997
i�	-15998
iy�	-15999
n�X	-16000
v�v	-16001
|0�	-16002
|E�	-16003
|\�	-16004
▁�^	-16005
�����������	-16006
[	-16007
H	-16008
;N	-16009
C	-16010
J	-16011
Y?	-16012
n	-16013
@�	-16014
"�	-16015
X�	-16016
�	-16017
�k	-16018
�g	-16019
�	-16020
�X	-16021
%�	-16022
y�	-16023
$�	-16024
N�	-16025
�	-16026
�	-16027
)"�	-16028
*0�	-16029
*@�	-16030
*�L	-16031
,�o	-16032
5�	-16033
7�	-16034
8�?	-16035
8�z	-16036
A5�	-16037
A7�	-16038
BU�	-16039
D�	-16040
D5�	-16041
E$�	-16042
L�t	-16043
RG�	-16044
T0�	-16045
[�<	-16046
[�z	-16047
b�_	-16048
cX�	-16049
d�t	-16050
i�	-16051
s�q	-16052
z�`	-16053
|�:	-16054
|�L	-16055
l	-16056
c	-16057
e	-16058
	-16059
,	-16060
,!	-16061
8V	-16062
CV	-16063
O9	-16064
Y;	-16065
Z@	-16066
f	-16067
m	-16068
n2	-16069
1�	-16070
2�	-16071
D�	-16072
_�	-16073
�4	-16074
�	-16075
�	-16076
E�	-16077
`�	-16078
�	-16079
m�	-16080
h�	-16081
�y	-16082
;�	-16083
?�	-16084
�	-16085
!V�	-16086
"7�	-16087
"o�	-16088
$5�	-16089
)�/	-16090
)�z	-16091
*D�	-16092
.�	-16093
/�v	-16094
5D�	-16095
6U�	-16096
6�^	-16097
:�<	-16098
>�k	-16099
A!�	-16100
AD�	-16101
Ac�	-16102
A�4	-16103
B�	-16104
BZ�	-16105
DE�	-16106
DR�	-16107
E�	-16108
EZ�	-16109
J�0	-16110
M�L	-16111
M�g	-16112
M�v	-16113
Q-�	-16114
Q�`	-16115
\0�	-16116
a�	-16117
f�w	-16118
h�	-16119
h�	-16120
hF�	-16121
hN�	-16122
hR�	-16123
i�^	-16124
k�L	-16125
p�	-16126
s�<	-16127
u<�	-16128
|R�	-16129
}�t	-16130
~�>	-16131
▁w�	-16132
▁�g	-16133
	-16134
,	-16135
KG	-16136
W#	-16137
c&	-16138
j	-16139
j	-16140
m+	-16141
m-	-16142
m]	-16143
L	-16144
'�	-16145
=�	-16146
t�	-16147
�	-16148
�s	-16149
�	-16150
=�	-16151
C�	-16152
@�	-16153
�	-16154
:�	-16155
�;	-16156
�	-16157
Y�	-16158
�`	-16159
�<	-16160
�	-16161
�L	-16162
�t	-16163
�y	-16164
I�	-16165
�	-16166
_�	-16167
"%�	-16168
"H�	-16169
"b�	-16170
)n�	-16171
*�	-16172
*R�	-16173
*l�	-16174
,�k	-16175
.�t	-16176
.�w	-16177
/�r	-16178
5I�	-16179
7�	-16180
7�^	-16181
8�k	-16182
8�x	-16183
Ag�	-16184
A�q	-16185
Bt�	-16186
By�	-16187
E4�	-16188
Q�L	-16189
Q�k	-16190
Q�o	-16191
Q�{	-16192
T"�	-16193
Tl�	-16194
dh�	-16195
dq�	-16196
dy�	-16197
h`�	-16198
hp�	-16199
id�	-16200
m�s	-16201
u�v	-16202
v�<	-16203
z�w	-16204
|�	-16205
|#�	-16206
}�:	-16207
~�k	-16208
>	-16209
SG	-16210
W	-16211
W	-16212
Y	-16213
YH	-16214
Zu	-16215
c1	-16216
el	-16217
f(	-16218
jC	-16219
mU	-16220
n	-16221
qI	-16222
�	-16223
Y�	-16224
k�	-16225
�w	-16226
c�	-16227
F�	-16228
-�	-16229
;�	-16230
Z�	-16231
�	-16232
�	-16233
4�	-16234
�	-16235
:�	-16236
!�	-16237
G�	-16238
�]	-16239
�v	-16240
$t�	-16241
)S�	-16242
*9�	-16243
,�y	-16244
.|�	-16245
/�O	-16246
5@�	-16247
=X�	-16248
?�L	-16249
A%�	-16250
A�s	-16251
B�	-16252
D�	-16253
D%�	-16254
EN�	-16255
P�o	-16256
Q{�	-16257
R9�	-16258
RO�	-16259
W�~	-16260
\�g	-16261
a�]	-16262
d^�	-16263
h3�	-16264
ij�	-16265
m�<	-16266
|"�	-16267
|5�	-16268
|N�	-16269
|�?	-16270
����k	-16271
	-16272
-	-16273
2	-16274
Y'	-16275
ZU	-16276
_O	-16277
e3	-16278
eu	-16279
f?	-16280
n	-16281
}N	-16282
3�	-16283
1�	-16284
C�	-16285
�^	-16286
�<	-16287
�^	-16288
D�	-16289
�L	-16290
w�	-16291
�^	-16292
w�	-16293
r�	-16294
�w	-16295
�<	-16296
^�	-16297
�v	-16298
"C�	-16299
"t�	-16300
$7�	-16301
$B�	-16302
)f�	-16303
*(�	-16304
*.�	-16305
+�s	-16306
+�y	-16307
,�<	-16308
7X�	-16309
7_�	-16310
?�/	-16311
A�:	-16312
D�	-16313
E�	-16314
E�g	-16315
M�o	-16316
V�{	-16317
Y0�	-16318
d�	-16319
h7�	-16320
k�_	-16321
m�`	-16322
p�	-16323
p�X	-16324
q�k	-16325
s�^	-16326
s�r	-16327
	-16328
+M	-16329
>(	-16330
JO	-16331
P	-16332
PF	-16333
W3	-16334
Y	-16335
c[	-16336
nu	-16337
$�	-16338
G�	-16339
g�	-16340
�	-16341
d�	-16342
�w	-16343
X�	-16344
�	-16345
�	-16346
�	-16347
3�	-16348
F�	-16349
�v	-16350
{�	-16351
%�	-16352
q�	-16353
�s	-16354
N�	-16355
$�	-16356
$�J	-16357
&�r	-16358
)�	-16359
)5�	-16360
.�N	-16361
11�	-16362
5=�	-16363
6)�	-16364
6�x	-16365
={�	-16366
A�w	-16367
B�	-16368
B!�	-16369
B5�	-16370
BR�	-16371
DD�	-16372
E6�	-16373
ET�	-16374
E|�	-16375
P�<	-16376
QM�	-16377
Rn�	-16378
S�^	-16379
T�	-16380
T�	-16381
V�X	-16382
[�	-16383
\"�	-16384
\#�	-16385
]�v	-16386
d0�	-16387
d=�	-16388
f�4	-16389
hJ�	-16390
hW�	-16391
i�r	-16392
j�{	-16393
o�O	-16394
r�w	-16395
|B�	-16396
|�~	-16397
▁�v	-16398
▁�y	-16399
G	-16400
@	-16401
l	-16402
	-16403
#	-16404
1.	-16405
4_	-16406
8	-16407
;	-16408
K(	-16409
e	-16410
f	-16411
mV	-16412
nK	-16413
}	-16414
O�	-16415
~�	-16416
y�	-16417
�`	-16418
�	-16419
�t	-16420
�	-16421
<�	-16422
�?	-16423
�	-16424
�?	-16425
�	-16426
�	-16427
&�	-16428
�	-16429
�	-16430
F�	-16431
C�	-16432
V�	-16433
u�	-16434
�/	-16435
#�w	-16436
(�<	-16437
*�	-16438
*O�	-16439
.{�	-16440
.�o	-16441
1Z�	-16442
2�o	-16443
7�	-16444
7Z�	-16445
7�	-16446
;�y	-16447
>�r	-16448
?�:	-16449
A-�	-16450
DV�	-16451
Dd�	-16452
L�{	-16453
M<�	-16454
[�	-16455
\�y	-16456
\�{	-16457
]�L	-16458
a~�	-16459
a�4	-16460
a�z	-16461
b�	-16462
b(�	-16463
b7�	-16464
b�<	-16465
dH�	-16466
dI�	-16467
f�g	-16468
hH�	-16469
h�^	-16470
i:�	-16471
p�^	-16472
ut�	-16473
v�r	-16474
|�	-16475
|Z�	-16476
����_	-16477
%�������	-16478
P�������	-16479
3	-16480
F	-16481
c	-16482
9l	-16483
;U	-16484
S	-16485
_N	-16486
}	-16487
�	-16488
9�	-16489
�	-16490
�x	-16491
�N	-16492
�r	-16493
�	-16494
1�	-16495
F�	-16496
S�	-16497
�	-16498
�?	-16499
!�	-16500
$j�	-16501
)�	-16502
)7�	-16503
*J�	-16504
*b�	-16505
*u�	-16506
,�`	-16507
.U�	-16508
.r�	-16509
5�	-16510
5w�	-16511
6Z�	-16512
8�^	-16513
8�w	-16514
A�	-16515
A4�	-16516
A�z	-16517
B�k	-16518
D�	-16519
E�	-16520
E�	-16521
E1�	-16522
EY�	-16523
E[�	-16524
Eg�	-16525
E�^	-16526
G�^	-16527
Q9�	-16528
R`�	-16529
W�<	-16530
W�w	-16531
\�	-16532
\}�	-16533
]�<	-16534
d%�	-16535
e�{	-16536
f�r	-16537
g�L	-16538
h�	-16539
hD�	-16540
hX�	-16541
h�s	-16542
ik�	-16543
m�v	-16544
o�?	-16545
p}�	-16546
v�>	-16547
z�]	-16548
|7�	-16549
|b�	-16550
,�������	-16551
u	-16552
G	-16553
,G	-16554
8U	-16555
=#	-16556
Cl	-16557
IU	-16558
J	-16559
PG	-16560
_&	-16561
mj	-16562
qO	-16563
~O	-16564
y�	-16565
�r	-16566
k�	-16567
�?	-16568
�L	-16569
#�	-16570
�w	-16571
-�	-16572
{�	-16573
A�	-16574
�	-16575
.�	-16576
*�	-16577
9�	-16578
�/	-16579
�	-16580
�^	-16581
�{	-16582
�	-16583
"�	-16584
)�	-16585
)�o	-16586
.%�	-16587
1�	-16588
55�	-16589
5<�	-16590
5A�	-16591
5T�	-16592
6�	-16593
6&�	-16594
9�x	-16595
<�k	-16596
>�]	-16597
?�X	-16598
A�	-16599
B�	-16600
C�r	-16601
E`�	-16602
E~�	-16603
G�w	-16604
I�L	-16605
K�^	-16606
K�`	-16607
P�`	-16608
P�t	-16609
Q�4	-16610
\=�	-16611
^�z	-16612
b�	-16613
bV�	-16614
br�	-16615
b�:	-16616
d+�	-16617
d7�	-16618
d;�	-16619
dp�	-16620
iH�	-16621
m�L	-16622
n�s	-16623
q�<	-16624
r�^	-16625
z�v	-16626
|+�	-16627
|�]	-16628
	-16629
+l	-16630
4&	-16631
C	-16632
Nl	-16633
Z	-16634
}u	-16635
�	-16636
`�	-16637
u�	-16638
�o	-16639
�z	-16640
=�	-16641
�	-16642
�w	-16643
�O	-16644
:�	-16645
�	-16646
`�	-16647
�}	-16648
�g	-16649
t�	-16650
�L	-16651
$.�	-16652
$S�	-16653
)�y	-16654
2�:	-16655
5:�	-16656
5H�	-16657
75�	-16658
<�{	-16659
=�x	-16660
>�~	-16661
@�<	-16662
B6�	-16663
B^�	-16664
D#�	-16665
D*�	-16666
E-�	-16667
E�t	-16668
F�g	-16669
H�x	-16670
I�<	-16671
K�<	-16672
O�L	-16673
Q~�	-16674
T/�	-16675
Y�r	-16676
b�	-16677
b-�	-16678
bU�	-16679
h�	-16680
h$�	-16681
h�z	-16682
i�	-16683
iw�	-16684
k�/	-16685
n`�	-16686
s�~	-16687
t�k	-16688
|D�	-16689
>�������	-16690
	-16691
	-16692
j	-16693
#H	-16694
+(	-16695
;H	-16696
>J	-16697
@	-16698
IM	-16699
NU	-16700
ZG	-16701
}	-16702
~�	-16703
�<	-16704
�<	-16705
�	-16706
�w	-16707
�	-16708
#�	-16709
+�	-16710
q�	-16711
�:	-16712
F�	-16713
"�	-16714
''�	-16715
*w�	-16716
*�{	-16717
.)�	-16718
.<�	-16719
.y�	-16720
2�0	-16721
2�{	-16722
3�:	-16723
5-�	-16724
6w�	-16725
;9�	-16726
B.�	-16727
C�X	-16728
D@�	-16729
Df�	-16730
E�	-16731
M�`	-16732
R&�	-16733
R+�	-16734
R\�	-16735
T8�	-16736
\w�	-16737
]�{	-16738
_�k	-16739
_�w	-16740
a.�	-16741
b}�	-16742
c�x	-16743
d�	-16744
dc�	-16745
h�	-16746
hG�	-16747
i�	-16748
k�f	-16749
m�^	-16750
n�q	-16751
p�	-16752
pQ�	-16753
|�	-16754
	-16755
!	-16756
2	-16757
C(	-16758
Jl	-16759
K#	-16760
S	-16761
_V	-16762
e	-16763
"�	-16764
d�	-16765
r�	-16766
|�	-16767
e�	-16768
�4	-16769
�k	-16770
�{	-16771
�X	-16772
�z	-16773
$�	-16774
(�	-16775
�	-16776
Q�	-16777
V�	-16778
?�	-16779
@�	-16780
c�	-16781
�t	-16782
�~	-16783
�	-16784
c�	-16785
�k	-16786
!�	-16787
!�r	-16788
"\�	-16789
$X�	-16790
'�k	-16791
)8�	-16792
*B�	-16793
*~�	-16794
.b�	-16795
1�s	-16796
2�y	-16797
4�<	-16798
5f�	-16799
6G�	-16800
=�]	-16801
A�	-16802
A�	-16803
Ao�	-16804
Bl�	-16805
C�w	-16806
D-�	-16807
DJ�	-16808
Dg�	-16809
E+�	-16810
Mq�	-16811
N�v	-16812
U�r	-16813
X�s	-16814
[�}	-16815
\?�	-16816
\G�	-16817
_�X	-16818
_�~	-16819
bq�	-16820
b�^	-16821
h#�	-16822
h�o	-16823
h�{	-16824
i�	-16825
i�:	-16826
i�s	-16827
k�s	-16828
l�`	-16829
n0�	-16830
z�:	-16831
{�r	-16832
|G�	-16833
}�0	-16834
�k	-16835
����0	-16836
G	-16837
j	-16838
	-16839
	-16840
'u	-16841
+	-16842
4~	-16843
8-	-16844
@	-16845
I	-16846
NH	-16847
P3	-16848
Su	-16849
W	-16850
Y	-16851
f	-16852
q>	-16853
R�	-16854
�/	-16855
�0	-16856
�t	-16857
�/	-16858
R�	-16859
-�	-16860
<�	-16861
`�	-16862
!6�	-16863
"r�	-16864
#w�	-16865
*�	-16866
*"�	-16867
*r�	-16868
*�`	-16869
,�L	-16870
.�	-16871
.-�	-16872
2�/	-16873
2�<	-16874
2�k	-16875
5�	-16876
7?�	-16877
;�:	-16878
A�	-16879
BA�	-16880
B�`	-16881
CL�	-16882
C�^	-16883
C�y	-16884
D�	-16885
Er�	-16886
F�q	-16887
N�y	-16888
O�W	-16889
Q+�	-16890
U�{	-16891
Y�w	-16892
[�L	-16893
bu�	-16894
df�	-16895
g�s	-16896
i�	-16897
j�Z	-16898
j�y	-16899
nn�	-16900
p+�	-16901
s�X	-16902
z�r	-16903
@�������	-16904
9	-16905
%	-16906
+H	-16907
;	-16908
@	-16909
@u	-16910
Ic	-16911
J	-16912
/�	-16913
?�	-16914
�L	-16915
+�	-16916
�k	-16917
%�	-16918
0�	-16919
�g	-16920
�X	-16921
�	-16922
�	-16923
:�	-16924
�	-16925
R�	-16926
�y	-16927
6�	-16928
�	-16929
"4�	-16930
$�k	-16931
$�o	-16932
'�/	-16933
)�	-16934
)@�	-16935
)K�	-16936
)}�	-16937
*T�	-16938
1G�	-16939
1�y	-16940
3�v	-16941
56�	-16942
5m�	-16943
6<�	-16944
6L�	-16945
7d�	-16946
A�	-16947
As�	-16948
D�	-16949
D/�	-16950
DP�	-16951
DZ�	-16952
E�	-16953
Ea�	-16954
Et�	-16955
E�r	-16956
F�o	-16957
O�	-16958
S�y	-16959
U�k	-16960
Y�k	-16961
[;�	-16962
\�4	-16963
^�y	-16964
b.�	-16965
be�	-16966
g�y	-16967
h�	-16968
h!�	-16969
h-�	-16970
hO�	-16971
h�v	-16972
i&�	-16973
i�q	-16974
lL�	-16975
l�y	-16976
l�	-16977
n�v	-16978
p�g	-16979
|&�	-16980
����/	-16981
	-16982
#!	-16983
'9	-16984
8M	-16985
;	-16986
;3	-16987
=[	-16988
>	-16989
>'	-16990
@	-16991
@N	-16992
F9	-16993
J(	-16994
J?	-16995
_K	-16996
n	-16997
X�	-16998
`�	-16999
�	-17000
�4	-17001
�g	-17002
J�	-17003
d�	-17004
�y	-17005
�	-17006
o�	-17007
�	-17008
W�	-17009
*�	-17010
@�	-17011
�	-17012
�	-17013
�4	-17014
�	-17015
U�	-17016
�X	-17017
�w	-17018
:�	-17019
"�	-17020
"�g	-17021
#�s	-17022
$!�	-17023
.G�	-17024
.K�	-17025
1�k	-17026
4�w	-17027
5�	-17028
9�/	-17029
>�w	-17030
A(�	-17031
B�g	-17032
C�:	-17033
D&�	-17034
D8�	-17035
D=�	-17036
DH�	-17037
DN�	-17038
E'�	-17039
ED�	-17040
MP�	-17041
R5�	-17042
Tw�	-17043
]\�	-17044
]�_	-17045
_�g	-17046
b�g	-17047
d�	-17048
e�x	-17049
f�I	-17050
i;�	-17051
iG�	-17052
ia�	-17053
l7�	-17054
l�s	-17055
m�~	-17056
q�z	-17057
w�t	-17058
,u	-17059
MU	-17060
S	-17061
V	-17062
e=	-17063
j	-17064
3�	-17065
�k	-17066
�s	-17067
&�	-17068
,�	-17069
�y	-17070
<�	-17071
�<	-17072
�L	-17073
{�	-17074
X�	-17075
�`	-17076
T�	-17077
0�	-17078
�~	-17079
"�	-17080
".�	-17081
$�	-17082
$M�	-17083
)\�	-17084
*A�	-17085
*V�	-17086
0�^	-17087
4�y	-17088
5z�	-17089
6r�	-17090
7�	-17091
9�k	-17092
?�`	-17093
@�4	-17094
AH�	-17095
B�	-17096
D�	-17097
DM�	-17098
DO�	-17099
D�{	-17100
E�Z	-17101
G�	-17102
J�t	-17103
Q�f	-17104
T=�	-17105
TO�	-17106
V�v	-17107
\�	-17108
\H�	-17109
ba�	-17110
e�k	-17111
h/�	-17112
h�4	-17113
j�_	-17114
m�r	-17115
o�X	-17116
q�w	-17117
v�q	-17118
v�~	-17119
y�L	-17120
y�g	-17121
z�q	-17122
|�	-17123
|�	-17124
|I�	-17125
}�`	-17126
����W	-17127
����r	-17128
����s	-17129
j�������	-17130
	-17131
,	-17132
I	-17133
�	-17134
=�	-17135
�q	-17136
P�	-17137
,�	-17138
�k	-17139
�t	-17140
�<	-17141
F�	-17142
c�	-17143
�	-17144
8�	-17145
Q�	-17146
�	-17147
O�	-17148
�	-17149
,�	-17150
G�	-17151
�	-17152
�	-17153
!~�	-17154
!�t	-17155
""�	-17156
$"�	-17157
$�:	-17158
'�:	-17159
)�:	-17160
*�	-17161
*�^	-17162
.P�	-17163
5�	-17164
6�	-17165
6�m	-17166
Co�	-17167
C�q	-17168
D;�	-17169
DT�	-17170
E9�	-17171
E�k	-17172
R{�	-17173
T�	-17174
T;�	-17175
U�J	-17176
[�	-17177
\�<	-17178
^�_	-17179
b�-	-17180
d>�	-17181
f�q	-17182
h[�	-17183
h{�	-17184
k�n	-17185
n�g	-17186
r�s	-17187
z�/	-17188
|a�	-17189
▁=�	-17190
▁�]	-17191
▁�f	-17192
	-17193
U	-17194
	-17195
#	-17196
&	-17197
'	-17198
+3	-17199
@1	-17200
P'	-17201
Wu	-17202
e	-17203
�_	-17204
�w	-17205
'�	-17206
�	-17207
3�	-17208
I�	-17209
J�	-17210
�4	-17211
&�	-17212
�	-17213
N�	-17214
�{	-17215
�	-17216
�	-17217
�y	-17218
!W�	-17219
"[�	-17220
"x�	-17221
#�	-17222
#{�	-17223
#�v	-17224
$g�	-17225
)�	-17226
);�	-17227
-�	-17228
0�w	-17229
1p�	-17230
5%�	-17231
7T�	-17232
:�k	-17233
;�x	-17234
<�`	-17235
>�4	-17236
BT�	-17237
E�4	-17238
Rs�	-17239
Ru�	-17240
T�	-17241
Tu�	-17242
U�s	-17243
\p�	-17244
^�s	-17245
b3�	-17246
b~�	-17247
d�<	-17248
d�o	-17249
e�w	-17250
h]�	-17251
ht�	-17252
iI�	-17253
o�y	-17254
s�	-17255
|�g	-17256
▁�	-17257
	-17258
	-17259
3	-17260
+u	-17261
6c	-17262
P	-17263
S%	-17264
W(	-17265
Y=	-17266
jH	-17267
m	-17268
Q�	-17269
�x	-17270
�y	-17271
�	-17272
<�	-17273
g�	-17274
0�	-17275
�g	-17276
�4	-17277
I�	-17278
9�	-17279
%�	-17280
�z	-17281
!�	-17282
"Q�	-17283
"X�	-17284
"w�	-17285
"~�	-17286
$-�	-17287
$�`	-17288
)�J	-17289
*�	-17290
*�<	-17291
.�	-17292
.i�	-17293
4�q	-17294
5\�	-17295
6p�	-17296
7(�	-17297
A+�	-17298
D�	-17299
K�o	-17300
M�]	-17301
S�L	-17302
TH�	-17303
[X�	-17304
\&�	-17305
^�/	-17306
^�4	-17307
^�]	-17308
b�y	-17309
dV�	-17310
di�	-17311
h"�	-17312
h�	-17313
n�4	-17314
o�z	-17315
u�s	-17316
v�s	-17317
|9�	-17318
|O�	-17319
|m�	-17320
	-17321
,[	-17322
I(	-17323
Jc	-17324
K	-17325
MH	-17326
N	-17327
S	-17328
Wl	-17329
eU	-17330
jF	-17331
n	-17332
n	-17333
�	-17334
[�	-17335
�`	-17336
�	-17337
�	-17338
�	-17339
;�	-17340
�`	-17341
�s	-17342
t�	-17343
�	-17344
�<	-17345
'�	-17346
l�	-17347
�`	-17348
H�	-17349
I�	-17350
�r	-17351
5�	-17352
t�	-17353
�q	-17354
Z�	-17355
�	-17356
D�	-17357
e�	-17358
�	-17359
?�	-17360
�s	-17361
�	-17362
"i�	-17363
"y�	-17364
$Q�	-17365
'�`	-17366
)>�	-17367
)b�	-17368
*1�	-17369
*�r	-17370
.M�	-17371
/�L	-17372
/�s	-17373
1w�	-17374
6'�	-17375
6+�	-17376
AL�	-17377
Aq�	-17378
BN�	-17379
BX�	-17380
C�g	-17381
C�s	-17382
Dr�	-17383
F�4	-17384
F�r	-17385
R�	-17386
R;�	-17387
U�o	-17388
Y�<	-17389
\�	-17390
\1�	-17391
_�t	-17392
b%�	-17393
b|�	-17394
c�z	-17395
i5�	-17396
j�~	-17397
nl�	-17398
v�_	-17399
|�	-17400
|�	-17401
����L	-17402
	-17403
	-17404
	-17405
%1	-17406
&	-17407
&u	-17408
,=	-17409
Ou	-17410
P	-17411
S	-17412
S3	-17413
Y	-17414
Y	-17415
ZH	-17416
eV	-17417
�	-17418
B�	-17419
�0	-17420
�v	-17421
�	-17422
m�	-17423
-�	-17424
0�	-17425
�q	-17426
�{	-17427
b�	-17428
�{	-17429
K�	-17430
�k	-17431
g�	-17432
n�	-17433
!�	-17434
!O�	-17435
!Z�	-17436
"A�	-17437
"M�	-17438
$4�	-17439
$y�	-17440
%�X	-17441
'g�	-17442
)T�	-17443
*!�	-17444
*y�	-17445
.H�	-17446
.O�	-17447
1m�	-17448
4�z	-17449
8�}	-17450
99�	-17451
:�{	-17452
A3�	-17453
Bh�	-17454
Dk�	-17455
Ez�	-17456
E�z	-17457
J�k	-17458
N�x	-17459
Ra�	-17460
R�4	-17461
R�o	-17462
S�r	-17463
T'�	-17464
U�4	-17465
[�;	-17466
^�~	-17467
_�/	-17468
_�?	-17469
bt�	-17470
ds�	-17471
hZ�	-17472
i-�	-17473
iM�	-17474
j�w	-17475
p�	-17476
p�	-17477
p�z	-17478
w�O	-17479
||�	-17480
▁�/	-17481
▁�?	-17482
����?	-17483
u	-17484
J	-17485
e	-17486
q�	-17487
�/	-17488
�]	-17489
�{	-17490
T�	-17491
e�	-17492
�>	-17493
�<	-17494
=�	-17495
N�	-17496
f�	-17497
�	-17498
B�	-17499
�^	-17500
#�	-17501
6�	-17502
�/	-17503
�K	-17504
�s	-17505
�z	-17506
Z�	-17507
�	-17508
h�	-17509
�:	-17510
~�	-17511
!�	-17512
"K�	-17513
$�4	-17514
$�<	-17515
&�/	-17516
)3�	-17517
)g�	-17518
*)�	-17519
+�~	-17520
,�f	-17521
.I�	-17522
1|�	-17523
2�J	-17524
5.�	-17525
5>�	-17526
5B�	-17527
6�	-17528
7�	-17529
7.�	-17530
7D�	-17531
7�q	-17532
8�	-17533
9�^	-17534
<�8	-17535
A~�	-17536
A�{	-17537
DA�	-17538
D]�	-17539
EV�	-17540
En�	-17541
I�W	-17542
R�X	-17543
S�]	-17544
S�`	-17545
T!�	-17546
U�y	-17547
X�^	-17548
Y�>	-17549
[�	-17550
_�v	-17551
bQ�	-17552
d�	-17553
d�/	-17554
hu�	-17555
i,�	-17556
iJ�	-17557
p�	-17558
p�	-17559
s�>	-17560
|T�	-17561
▁�s	-17562
	-17563
	-17564
V	-17565
O	-17566
O%	-17567
n	-17568
E�	-17569
�<	-17570
�r	-17571
�	-17572
'�	-17573
x�	-17574
�^	-17575
L�	-17576
{�	-17577
v�	-17578
}�	-17579
�z	-17580
V�	-17581
�]	-17582
�o	-17583
�y	-17584
L�	-17585
!�	-17586
#~�	-17587
(�{	-17588
)c�	-17589
*�	-17590
*5�	-17591
*K�	-17592
*]�	-17593
*m�	-17594
.�	-17595
1�w	-17596
2�q	-17597
2�w	-17598
5N�	-17599
5~�	-17600
6�	-17601
6[�	-17602
9�]	-17603
:�t	-17604
A�	-17605
B|�	-17606
CT�	-17607
E(�	-17608
E8�	-17609
F�z	-17610
J�/	-17611
P�w	-17612
T�	-17613
T~�	-17614
V�J	-17615
W�`	-17616
W�x	-17617
Yx�	-17618
_�s	-17619
b�o	-17620
e�^	-17621
hK�	-17622
hk�	-17623
i�{	-17624
j�L	-17625
j�j	-17626
nd�	-17627
t�^	-17628
|d�	-17629
▁�>	-17630
=	-17631
&=	-17632
+G	-17633
@[	-17634
Fu	-17635
OU	-17636
Pc	-17637
j	-17638
jG	-17639
m	-17640
mZ	-17641
N�	-17642
h�	-17643
�I	-17644
5�	-17645
u�	-17646
c�	-17647
<�	-17648
�r	-17649
g�	-17650
l�	-17651
{�	-17652
�`	-17653
l�	-17654
�	-17655
�r	-17656
&�	-17657
{�	-17658
!o�	-17659
"1�	-17660
"<�	-17661
#q�	-17662
$G�	-17663
$n�	-17664
$o�	-17665
$�z	-17666
%�V	-17667
*q�	-17668
+�<	-17669
.C�	-17670
.z�	-17671
1�	-17672
1V�	-17673
6�	-17674
6s�	-17675
73�	-17676
:�:	-17677
=�k	-17678
>�/	-17679
?�y	-17680
?�z	-17681
A2�	-17682
A]�	-17683
B3�	-17684
Da�	-17685
D�o	-17686
D�y	-17687
F�y	-17688
F�{	-17689
Mt�	-17690
P�X	-17691
R�s	-17692
T&�	-17693
^�v	-17694
`�k	-17695
b\�	-17696
d~�	-17697
i.�	-17698
iO�	-17699
i�z	-17700
n<�	-17701
r�<	-17702
y�<	-17703
|�	-17704
|V�	-17705
▁�k	-17706
	-17707
C	-17708
+	-17709
+	-17710
@	-17711
@(	-17712
J[	-17713
OK	-17714
SH	-17715
WC	-17716
e	-17717
}Z	-17718
�L	-17719
�y	-17720
�	-17721
}�	-17722
�L	-17723
�s	-17724
E�	-17725
'�	-17726
�k	-17727
]�	-17728
�?	-17729
�^	-17730
�	-17731
�	-17732
5�	-17733
L�	-17734
"�	-17735
"�	-17736
"�r	-17737
(�4	-17738
*v�	-17739
*�k	-17740
+�v	-17741
,�r	-17742
.�	-17743
.w�	-17744
0�y	-17745
5}�	-17746
7/�	-17747
7:�	-17748
8�	-17749
?�8	-17750
B�o	-17751
D4�	-17752
Du�	-17753
J�g	-17754
S�g	-17755
S�v	-17756
U�Z	-17757
_�	-17758
_�:	-17759
b�	-17760
iL�	-17761
o�L	-17762
pE�	-17763
p�q	-17764
r�g	-17765
t�<	-17766
u�	-17767
{�:	-17768
|�	-17769
|S�	-17770
	-17771
'	-17772
I	-17773
I=	-17774
K	-17775
_c	-17776
x0	-17777
�	-17778
�z	-17779
�:	-17780
G�	-17781
�<	-17782
�x	-17783
�w	-17784
�y	-17785
g�	-17786
@�	-17787
�L	-17788
x�	-17789
i�	-17790
�:	-17791
{�	-17792
@�	-17793
Z�	-17794
�>	-17795
�	-17796
�X	-17797
E�	-17798
�r	-17799
�y	-17800
"�	-17801
"q�	-17802
#�t	-17803
$O�	-17804
%�^	-17805
&�w	-17806
'�?	-17807
*�	-17808
*=�	-17809
*i�	-17810
+�/	-17811
.T�	-17812
.X�	-17813
0�4	-17814
0�s	-17815
1E�	-17816
3r�	-17817
7�	-17818
:�y	-17819
A�k	-17820
B>�	-17821
B�<	-17822
D�	-17823
E�	-17824
G�	-17825
H�r	-17826
QV�	-17827
Rb�	-17828
U�`	-17829
Z-�	-17830
hI�	-17831
j�]	-17832
k�?	-17833
l>�	-17834
y�^	-17835
'	-17836
C!	-17837
JM	-17838
n	-17839
}M	-17840
�:	-17841
�	-17842
�^	-17843
D�	-17844
�t	-17845
�~	-17846
�	-17847
�~	-17848
�	-17849
Y�	-17850
!�	-17851
w�	-17852
�	-17853
�L	-17854
�x	-17855
Y�	-17856
t�	-17857
[�	-17858
"(�	-17859
"e�	-17860
"s�	-17861
$;�	-17862
$Y�	-17863
$b�	-17864
&�g	-17865
'�q	-17866
)�	-17867
.5�	-17868
1�	-17869
1*�	-17870
1�:	-17871
3�	-17872
54�	-17873
5Q�	-17874
5X�	-17875
6�`	-17876
7H�	-17877
7V�	-17878
;�s	-17879
=�	-17880
AZ�	-17881
Ap�	-17882
BF�	-17883
B�t	-17884
E�	-17885
Es�	-17886
P�/	-17887
R�	-17888
R�^	-17889
T}�	-17890
[c�	-17891
\C�	-17892
^�L	-17893
^�	-17894
a�f	-17895
e�4	-17896
h�/	-17897
i*�	-17898
iY�	-17899
n�x	-17900
p7�	-17901
r�:	-17902
t�z	-17903
u�<	-17904
z�4	-17905
|;�	-17906
H	-17907
W	-17908
	-17909
,	-17910
'	-17911
+V	-17912
+[	-17913
8	-17914
>-	-17915
J	-17916
N	-17917
N	-17918
cC	-17919
m	-17920
}W	-17921
>�	-17922
b�	-17923
�_	-17924
<�	-17925
q�	-17926
z�	-17927
�o	-17928
M�	-17929
o�	-17930
E�	-17931
�t	-17932
Z�	-17933
L�	-17934
#�	-17935
�r	-17936
b�	-17937
l�	-17938
Z�	-17939
#�	-17940
%�/	-17941
(�]	-17942
+�:	-17943
-�w	-17944
.j�	-17945
.k�	-17946
/�W	-17947
1l�	-17948
3�z	-17949
5R�	-17950
9�}	-17951
@�o	-17952
A$�	-17953
AA�	-17954
BH�	-17955
Bx�	-17956
D�	-17957
D}�	-17958
Ed�	-17959
Ef�	-17960
Eo�	-17961
F�k	-17962
TD�	-17963
]�~	-17964
^�r	-17965
b�	-17966
do�	-17967
e�F	-17968
f`�	-17969
hB�	-17970
i�	-17971
i'�	-17972
p�y	-17973
v�4	-17974
v�o	-17975
w�=	-17976
▁�&	-17977
q�������	-17978
	-17979
	-17980
&[	-17981
>%	-17982
�	-17983
�X	-17984
�	-17985
*�	-17986
�	-17987
�	-17988
f�	-17989
q�	-17990
z�	-17991
<�	-17992
A�	-17993
C�	-17994
�?	-17995
�:	-17996
f�	-17997
j�	-17998
=�	-17999
$f�	-18000
%�o	-18001
(�y	-18002
)z�	-18003
)�_	-18004
*C�	-18005
*n�	-18006
-�L	-18007
.�	-18008
.�	-18009
.�	-18010
.#�	-18011
.4�	-18012
/�y	-18013
1�	-18014
1�J	-18015
1�S	-18016
3�	-18017
4�4	-18018
6@�	-18019
7s�	-18020
8<�	-18021
9>�	-18022
:�4	-18023
=�4	-18024
@�w	-18025
AQ�	-18026
Af�	-18027
Dm�	-18028
F�:	-18029
L�k	-18030
O�X	-18031
R"�	-18032
R�q	-18033
T�4	-18034
W�:	-18035
W�X	-18036
Y�{	-18037
[�:	-18038
\!�	-18039
_�y	-18040
c�:	-18041
h�<	-18042
i[�	-18043
p�	-18044
u�>	-18045
I	-18046
#	-18047
+	-18048
-G	-18049
8	-18050
O2	-18051
�	-18052
j�	-18053
.�	-18054
i�	-18055
�z	-18056
�~	-18057
M�	-18058
�	-18059
�z	-18060
�X	-18061
�v	-18062
�z	-18063
�/	-18064
�w	-18065
U�	-18066
{�	-18067
�	-18068
Q�	-18069
�:	-18070
`�	-18071
!7�	-18072
"�	-18073
"&�	-18074
"6�	-18075
"`�	-18076
"p�	-18077
"{�	-18078
$\�	-18079
'x�	-18080
)�	-18081
)Q�	-18082
)�^	-18083
,�:	-18084
-�v	-18085
.+�	-18086
4�	-18087
53�	-18088
6�	-18089
6F�	-18090
8�X	-18091
8�`	-18092
9�_	-18093
:�L	-18094
;�/	-18095
=g�	-18096
Bk�	-18097
B}�	-18098
Di�	-18099
D~�	-18100
EH�	-18101
G{�	-18102
R�<	-18103
TA�	-18104
TQ�	-18105
Tf�	-18106
U�g	-18107
[C�	-18108
\M�	-18109
\�w	-18110
^�g	-18111
b{�	-18112
b�s	-18113
c�/	-18114
m�}	-18115
m�	-18116
n�m	-18117
p[�	-18118
t�y	-18119
|�	-18120
|6�	-18121
}o�	-18122
~�:	-18123
~�X	-18124
����X	-18125
u	-18126
	-18127
I;	-18128
O	-18129
WH	-18130
f	-18131
fG	-18132
Q�	-18133
p�	-18134
�	-18135
�X	-18136
�	-18137
{�	-18138
]�	-18139
K�	-18140
�o	-18141
�0	-18142
b�	-18143
�X	-18144
H�	-18145
�?	-18146
�	-18147
�	-18148
!E�	-18149
!�4	-18150
$_�	-18151
$�X	-18152
(�	-18153
)=�	-18154
)�w	-18155
*,�	-18156
*N�	-18157
*z�	-18158
.�	-18159
.�4	-18160
0�]	-18161
1s�	-18162
1�~	-18163
5a�	-18164
7>�	-18165
9�	-18166
<�v	-18167
?�=	-18168
B8�	-18169
D|�	-18170
D�X	-18171
E�	-18172
I�g	-18173
I�k	-18174
J�4	-18175
O�t	-18176
O�w	-18177
R�	-18178
R�P	-18179
S�4	-18180
S�q	-18181
T�	-18182
T�z	-18183
Vk�	-18184
Y�L	-18185
bA�	-18186
c�~	-18187
he�	-18188
l�	-18189
l'�	-18190
l5�	-18191
p3�	-18192
q�t	-18193
w�/	-18194
����<	-18195
	-18196
	-18197
%	-18198
,3	-18199
-C	-18200
8	-18201
F	-18202
P	-18203
S(	-18204
Z	-18205
m&	-18206
}U	-18207
�	-18208
'�	-18209
�_	-18210
g�	-18211
&�	-18212
�r	-18213
�y	-18214
�	-18215
9�	-18216
T�	-18217
i�	-18218
7�	-18219
�y	-18220
=�	-18221
n�	-18222
6�	-18223
]�	-18224
�?	-18225
!1�	-18226
!U�	-18227
"�	-18228
$+�	-18229
$�j	-18230
%�r	-18231
(�s	-18232
)k�	-18233
)u�	-18234
*�	-18235
*3�	-18236
*:�	-18237
-X�	-18238
.=�	-18239
.�v	-18240
1�	-18241
4�^	-18242
6�	-18243
6V�	-18244
7a�	-18245
7�:	-18246
Aw�	-18247
A}�	-18248
B(�	-18249
Ba�	-18250
D�	-18251
D�	-18252
D�<	-18253
G�4	-18254
J�:	-18255
N�4	-18256
N�L	-18257
Tv�	-18258
V�`	-18259
Y�4	-18260
[+�	-18261
d�`	-18262
fS�	-18263
h%�	-18264
hg�	-18265
i�	-18266
k�q	-18267
k�z	-18268
l�~	-18269
o�~	-18270
p�s	-18271
v�]	-18272
~�]	-18273
▁�~	-18274
-H	-18275
PU	-18276
S=	-18277
Z	-18278
n	-18279
x�	-18280
�<	-18281
t�	-18282
�z	-18283
�/	-18284
�`	-18285
@�	-18286
�<	-18287
�s	-18288
�{	-18289
�w	-18290
&�	-18291
V�	-18292
e�	-18293
F�	-18294
�x	-18295
�z	-18296
�v	-18297
X�	-18298
{�	-18299
�`	-18300
!]�	-18301
#�q	-18302
#�{	-18303
$�q	-18304
&&�	-18305
)o�	-18306
*x�	-18307
-1�	-18308
-g�	-18309
.�	-18310
.>�	-18311
0�q	-18312
1I�	-18313
1M�	-18314
7�	-18315
Ay�	-18316
B�/	-18317
Dn�	-18318
Dt�	-18319
EQ�	-18320
E_�	-18321
Em�	-18322
J�o	-18323
M�	-18324
N�/	-18325
V�	-18326
\�~	-18327
d.�	-18328
h�	-18329
hC�	-18330
h�O	-18331
iP�	-18332
i}�	-18333
s�k	-18334
t�q	-18335
u�x	-18336
w�_	-18337
|H�	-18338
|M�	-18339
~�s	-18340
|��������	-18341
9	-18342
8'	-18343
GH	-18344
I	-18345
J	-18346
A�	-18347
8�	-18348
[�	-18349
j�	-18350
y�	-18351
�s	-18352
+�	-18353
�x	-18354
�L	-18355
\�	-18356
q�	-18357
�	-18358
z�	-18359
�	-18360
u�	-18361
�q	-18362
7�	-18363
T�	-18364
w�	-18365
�	-18366
�]	-18367
�4	-18368
�v	-18369
�q	-18370
!n�	-18371
"5�	-18372
"=�	-18373
&�<	-18374
'�z	-18375
,�{	-18376
0�;	-18377
12�	-18378
1y�	-18379
2�v	-18380
2�~	-18381
5�	-18382
5(�	-18383
5x�	-18384
6�s	-18385
7�	-18386
7"�	-18387
7F�	-18388
7W�	-18389
<�y	-18390
?�]	-18391
A�	-18392
AM�	-18393
B"�	-18394
D6�	-18395
Eb�	-18396
F3�	-18397
K�X	-18398
L�4	-18399
L�`	-18400
Q�	-18401
T?�	-18402
U�w	-18403
Z�V	-18404
a@�	-18405
iW�	-18406
i�v	-18407
l�g	-18408
s�4	-18409
v�}	-18410
|�	-18411
|�	-18412
▁�	-18413
9	-18414
3	-18415
?c	-18416
OP	-18417
P	-18418
S	-18419
W=	-18420
f&	-18421
fH	-18422
j(	-18423
�	-18424
a�	-18425
{�	-18426
�w	-18427
o�	-18428
�o	-18429
�:	-18430
o�	-18431
,�	-18432
�	-18433
�`	-18434
P�	-18435
�y	-18436
=�	-18437
X�	-18438
�/	-18439
x�	-18440
�	-18441
^�	-18442
*�	-18443
!z�	-18444
"�	-18445
"-�	-18446
"j�	-18447
$�	-18448
$1�	-18449
$z�	-18450
$�g	-18451
'�]	-18452
)C�	-18453
)�I	-18454
-�:	-18455
.7�	-18456
.`�	-18457
4�s	-18458
57�	-18459
5�`	-18460
5�q	-18461
9�z	-18462
Ab�	-18463
B�	-18464
BV�	-18465
B�4	-18466
E�o	-18467
MM�	-18468
T�`	-18469
Z�4	-18470
c�	-18471
cO�	-18472
e�/	-18473
m�X	-18474
m�y	-18475
nw�	-18476
r�_	-18477
uL�	-18478
u�Y	-18479
~�Y	-18480
▁�I	-18481
▁�m	-18482
����y	-18483
l	-18484
+	-18485
KH	-18486
M	-18487
�^	-18488
�	-18489
9�	-18490
i�	-18491
c�	-18492
(�	-18493
-�	-18494
_�	-18495
|�	-18496
�q	-18497
�z	-18498
.�	-18499
C�	-18500
�J	-18501
�X	-18502
,�	-18503
`�	-18504
�x	-18505
�^	-18506
�{	-18507
�^	-18508
�	-18509
"v�	-18510
#�y	-18511
)�	-18512
)�4	-18513
*�/	-18514
5�	-18515
7*�	-18516
8�y	-18517
<�w	-18518
<�z	-18519
A1�	-18520
AX�	-18521
BQ�	-18522
Bn�	-18523
EM�	-18524
G/�	-18525
G7�	-18526
GX�	-18527
G�L	-18528
G�k	-18529
G�s	-18530
H�t	-18531
J�{	-18532
N�<	-18533
R7�	-18534
U�_	-18535
\F�	-18536
\�L	-18537
\�q	-18538
^�`	-18539
d"�	-18540
dk�	-18541
e�L	-18542
i�	-18543
i?�	-18544
m�]	-18545
no�	-18546
r�v	-18547
v�j	-18548
{�v	-18549
}�;	-18550
▁�@	-18551
2	-18552
Il	-18553
J	-18554
N	-18555
Y	-18556
n	-18557
}_	-18558
�4	-18559
�y	-18560
O�	-18561
a�	-18562
!�	-18563
�_	-18564
�	-18565
@�	-18566
O�	-18567
x�	-18568
S�	-18569
`�	-18570
.�	-18571
X�	-18572
�_	-18573
�	-18574
S�	-18575
�	-18576
�y	-18577
z�	-18578
�	-18579
"�	-18580
1�	-18581
F�	-18582
�x	-18583
"F�	-18584
#�<	-18585
$�	-18586
$?�	-18587
$T�	-18588
%�J	-18589
&�y	-18590
'�X	-18591
(�@	-18592
+�^	-18593
.?�	-18594
.A�	-18595
.B�	-18596
1�	-18597
3�_	-18598
6�?	-18599
7Y�	-18600
8�q	-18601
:�X	-18602
<�^	-18603
Aa�	-18604
C�m	-18605
Dz�	-18606
E;�	-18607
Ej�	-18608
G�:	-18609
I�^	-18610
J�S	-18611
N�_	-18612
U�	-18613
Wx�	-18614
Z�<	-18615
^�q	-18616
ak�	-18617
d�	-18618
d*�	-18619
e�s	-18620
iE�	-18621
iK�	-18622
i_�	-18623
p/�	-18624
w�z	-18625
+=	-18626
7!	-18627
;#	-18628
;(	-18629
N#	-18630
W	-18631
9�	-18632
�	-18633
�	-18634
r�	-18635
�/	-18636
�`	-18637
�:	-18638
=�	-18639
�^	-18640
�t	-18641
�	-18642
�	-18643
[�	-18644
k�	-18645
p�	-18646
�k	-18647
�	-18648
F�	-18649
�o	-18650
1�	-18651
�	-18652
f�	-18653
P�	-18654
|�	-18655
z�	-18656
$D�	-18657
(�^	-18658
)�	-18659
*�	-18660
*6�	-18661
+�4	-18662
.9�	-18663
.h�	-18664
0�r	-18665
1�	-18666
1S�	-18667
1]�	-18668
1h�	-18669
3�y	-18670
3�~	-18671
4�v	-18672
6�	-18673
6{�	-18674
7�X	-18675
8�:	-18676
=�~	-18677
B�	-18678
B_�	-18679
C�	-18680
C'�	-18681
E"�	-18682
EE�	-18683
E�v	-18684
G�<	-18685
Q�y	-18686
U�x	-18687
V�/	-18688
W�?	-18689
Z�v	-18690
["�	-18691
[/�	-18692
]�`	-18693
d�w	-18694
h~�	-18695
ir�	-18696
l�j	-18697
m�z	-18698
▁�	-18699
'	-18700
?	-18701
S#	-18702
Z	-18703
[=	-18704
j	-18705
1�	-18706
�v	-18707
\�	-18708
/�	-18709
�	-18710
W�	-18711
�{	-18712
`�	-18713
�r	-18714
�r	-18715
�L	-18716
�	-18717
�z	-18718
�L	-18719
q�	-18720
e�	-18721
X�	-18722
/�	-18723
!S�	-18724
!a�	-18725
"_�	-18726
#;�	-18727
%�_	-18728
%�m	-18729
'�	-18730
)D�	-18731
*�	-18732
*7�	-18733
+�x	-18734
.p�	-18735
3�	-18736
3�	-18737
5�r	-18738
6�y	-18739
7K�	-18740
7h�	-18741
A>�	-18742
AO�	-18743
Ek�	-18744
GW�	-18745
H�^	-18746
J�J	-18747
J�]	-18748
M1�	-18749
Qv�	-18750
R�	-18751
Th�	-18752
T�/	-18753
T�L	-18754
U�z	-18755
U�	-18756
[,�	-18757
[t�	-18758
aw�	-18759
co�	-18760
g�^	-18761
hA�	-18762
i�>	-18763
i�w	-18764
m�_	-18765
p_�	-18766
p{�	-18767
q�r	-18768
y�o	-18769
|�%	-18770
|�m	-18771
��	-18772
����4	-18773
2	-18774
=	-18775
H	-18776
8G	-18777
CH	-18778
W	-18779
}f	-18780
w�	-18781
b�	-18782
�X	-18783
�`	-18784
#�	-18785
s�	-18786
�	-18787
�	-18788
=�	-18789
o�	-18790
?�	-18791
O�	-18792
�q	-18793
\�	-18794
/�	-18795
�]	-18796
�q	-18797
X�	-18798
o�	-18799
�4	-18800
c�	-18801
^�	-18802
2�	-18803
�/	-18804
�9	-18805
$C�	-18806
$V�	-18807
(�~	-18808
)�	-18809
)d�	-18810
*�	-18811
*�	-18812
*f�	-18813
*k�	-18814
0�_	-18815
3w�	-18816
5�	-18817
5"�	-18818
5e�	-18819
6�	-18820
6;�	-18821
7C�	-18822
A9�	-18823
AF�	-18824
AV�	-18825
Ar�	-18826
A�o	-18827
B�	-18828
BB�	-18829
B`�	-18830
D_�	-18831
D�s	-18832
E�	-18833
E=�	-18834
H�4	-18835
L�g	-18836
P�4	-18837
P�z	-18838
[�`	-18839
\h�	-18840
ct�	-18841
d!�	-18842
d?�	-18843
i�	-18844
i)�	-18845
ln�	-18846
m�>	-18847
n-�	-18848
p�_	-18849
uz�	-18850
u�:	-18851
|W�	-18852
}�L	-18853
}�q	-18854
▁�S	-18855
2	-18856
P#	-18857
Y	-18858
e	-18859
n�	-18860
]�	-18861
�x	-18862
�	-18863
'�	-18864
�	-18865
�	-18866
�	-18867
�	-18868
h�	-18869
r�	-18870
�	-18871
�s	-18872
%�	-18873
'�	-18874
9�	-18875
O�	-18876
�/	-18877
�@	-18878
�^	-18879
o�	-18880
�	-18881
"�	-18882
z�	-18883
!�	-18884
!0�	-18885
"f�	-18886
$�	-18887
$>�	-18888
$v�	-18889
%�	-18890
(�:	-18891
*�y	-18892
+�X	-18893
+�	-18894
.�<	-18895
1:�	-18896
1�X	-18897
5#�	-18898
5�:	-18899
6z�	-18900
6�]	-18901
6�q	-18902
6�r	-18903
6�~	-18904
7]�	-18905
7�_	-18906
A�	-18907
B�y	-18908
Dl�	-18909
E/�	-18910
EC�	-18911
Rr�	-18912
T�	-18913
Z�{	-18914
\3�	-18915
\�>	-18916
bn�	-18917
b�L	-18918
b�w	-18919
du�	-18920
h=�	-18921
i�	-18922
in�	-18923
l,�	-18924
lW�	-18925
pW�	-18926
q�g	-18927
{�<	-18928
|$�	-18929
|-�	-18930
▁�-	-18931
����z	-18932
����	-18933
	-18934
Y	-18935
x{	-18936
8�	-18937
A�	-18938
,�	-18939
�	-18940
*�	-18941
�;	-18942
E�	-18943
�q	-18944
�y	-18945
c�	-18946
�	-18947
t�	-18948
|�	-18949
z�	-18950
�{	-18951
�/	-18952
�`	-18953
:�	-18954
^�	-18955
~�	-18956
�<	-18957
�X	-18958
�	-18959
�	-18960
!e�	-18961
"9�	-18962
";�	-18963
#4�	-18964
$w�	-18965
%�`	-18966
(�x	-18967
*j�	-18968
.�z	-18969
1r�	-18970
5W�	-18971
6�w	-18972
8�v	-18973
==�	-18974
=�X	-18975
A;�	-18976
B2�	-18977
C�	-18978
Dh�	-18979
E�	-18980
EX�	-18981
GS�	-18982
N�J	-18983
P�L	-18984
P�{	-18985
T3�	-18986
U�]	-18987
WX�	-18988
Z�	-18989
Zc�	-18990
Z�]	-18991
[�~	-18992
i7�	-18993
iR�	-18994
i\�	-18995
l-�	-18996
l}�	-18997
m�q	-18998
s�t	-18999
y�/	-19000
~�/	-19001
▁l�	-19002
'	-19003
K=	-19004
M3	-19005
O	-19006
]2	-19007
xy	-19008
d�	-19009
<�	-19010
K�	-19011
�{	-19012
�~	-19013
�	-19014
K�	-19015
'�	-19016
�	-19017
�z	-19018
�>	-19019
�4	-19020
�{	-19021
�w	-19022
�	-19023
3�	-19024
:�	-19025
!Q�	-19026
!_�	-19027
!g�	-19028
!l�	-19029
!�X	-19030
"0�	-19031
$�	-19032
$c�	-19033
$d�	-19034
${�	-19035
$�H	-19036
$�^	-19037
)�s	-19038
*2�	-19039
+�_	-19040
,�q	-19041
1"�	-19042
1g�	-19043
1�v	-19044
3�	-19045
5/�	-19046
7�	-19047
9�	-19048
:�^	-19049
;�^	-19050
>�z	-19051
Eu�	-19052
GC�	-19053
G�r	-19054
H�o	-19055
M�	-19056
M\�	-19057
O�	-19058
R?�	-19059
T�	-19060
VK�	-19061
V`�	-19062
Va�	-19063
[�	-19064
[�_	-19065
\l�	-19066
a�	-19067
cJ�	-19068
d5�	-19069
e�_	-19070
h?�	-19071
hq�	-19072
i�	-19073
j5�	-19074
l_�	-19075
s�z	-19076
y�y	-19077
&8	-19078
?I	-19079
O#	-19080
P	-19081
Yu	-19082
n	-19083
}	-19084
2�	-19085
B�	-19086
�L	-19087
�w	-19088
+�	-19089
B�	-19090
�x	-19091
}�	-19092
`�	-19093
�X	-19094
A�	-19095
p�	-19096
Q�	-19097
z�	-19098
�4	-19099
!R�	-19100
"�	-19101
"@�	-19102
$<�	-19103
$�{	-19104
)w�	-19105
.q�	-19106
1�	-19107
3o�	-19108
3x�	-19109
5_�	-19110
5d�	-19111
5k�	-19112
8�s	-19113
9�	-19114
B&�	-19115
BD�	-19116
B�J	-19117
D0�	-19118
D�	-19119
E�~	-19120
L�r	-19121
Ma�	-19122
T�	-19123
[7�	-19124
[�/	-19125
^�J	-19126
`�v	-19127
b�v	-19128
d3�	-19129
dl�	-19130
e�J	-19131
i#�	-19132
i9�	-19133
iD�	-19134
i|�	-19135
lI�	-19136
s�]	-19137
u:�	-19138
uk�	-19139
y�:	-19140
y�~	-19141
▁�_	-19142
2	-19143
m'	-19144
c�	-19145
�v	-19146
�	-19147
�L	-19148
�/	-19149
�~	-19150
\�	-19151
�:	-19152
~�	-19153
�	-19154
Z�	-19155
�Y	-19156
m�	-19157
�	-19158
.�	-19159
�	-19160
2�	-19161
p�	-19162
F�	-19163
z�	-19164
!�o	-19165
!�y	-19166
">�	-19167
$�	-19168
$�f	-19169
%.�	-19170
%�y	-19171
&�_	-19172
)�q	-19173
*#�	-19174
+�z	-19175
.�	-19176
.\�	-19177
/�4	-19178
1�	-19179
1X�	-19180
1n�	-19181
3�	-19182
3�	-19183
4�m	-19184
5o�	-19185
6g�	-19186
6�X	-19187
7-�	-19188
7U�	-19189
=,�	-19190
?�	-19191
A�	-19192
Bd�	-19193
CI�	-19194
C�<	-19195
Ev�	-19196
E�/	-19197
J�,	-19198
K�4	-19199
Q�v	-19200
R�I	-19201
V�s	-19202
Y�o	-19203
Z�x	-19204
ho�	-19205
hz�	-19206
i�	-19207
l�	-19208
lf�	-19209
ll�	-19210
s�s	-19211
u�]	-19212
|A�	-19213
▁�Y	-19214
n	-19215
�	-19216
7�	-19217
�	-19218
7�	-19219
t�	-19220
�	-19221
G�	-19222
�{	-19223
{�	-19224
g�	-19225
�L	-19226
�	-19227
4�	-19228
�	-19229
B�	-19230
x�	-19231
�	-19232
�	-19233
�;	-19234
/�	-19235
�:	-19236
�z	-19237
X�	-19238
t�	-19239
�]	-19240
B�	-19241
�y	-19242
"�	-19243
%:�	-19244
(�>	-19245
(�_	-19246
(�w	-19247
)�{	-19248
-�	-19249
.�	-19250
1P�	-19251
1j�	-19252
1x�	-19253
59�	-19254
5�]	-19255
7{�	-19256
8�/	-19257
;�q	-19258
@�^	-19259
A�	-19260
A"�	-19261
Ak�	-19262
B]�	-19263
Cx�	-19264
C�x	-19265
Fx�	-19266
KL�	-19267
MU�	-19268
M]�	-19269
Ml�	-19270
N.�	-19271
N�o	-19272
Q�J	-19273
T�J	-19274
V�<	-19275
[{�	-19276
[�'	-19277
^�k	-19278
`�~	-19279
a�>	-19280
dA�	-19281
hm�	-19282
i�4	-19283
q�	-19284
s�?	-19285
▁�	-19286
����]	-19287
nG	-19288
}'	-19289
};	-19290
W�	-19291
n�	-19292
]�	-19293
m�	-19294
m�	-19295
�^	-19296
�w	-19297
}�	-19298
m�	-19299
�v	-19300
U�	-19301
�	-19302
z�	-19303
y�	-19304
�	-19305
�4	-19306
�O	-19307
!'�	-19308
!I�	-19309
!{�	-19310
!}�	-19311
",�	-19312
"|�	-19313
"}�	-19314
$p�	-19315
'o�	-19316
(X�	-19317
)�?	-19318
)�r	-19319
*�	-19320
*>�	-19321
.3�	-19322
.Y�	-19323
.o�	-19324
5!�	-19325
6l�	-19326
6t�	-19327
<�:	-19328
=�s	-19329
@�k	-19330
BM�	-19331
C;�	-19332
D�t	-19333
Ep�	-19334
E�s	-19335
H�L	-19336
J�K	-19337
M�	-19338
N�s	-19339
P�@	-19340
Q�z	-19341
R�v	-19342
V�z	-19343
WG�	-19344
Z�s	-19345
[8�	-19346
[S�	-19347
[w�	-19348
[�m	-19349
\�	-19350
b�@	-19351
c�_	-19352
d�z	-19353
hv�	-19354
i�	-19355
i�	-19356
j4�	-19357
l~�	-19358
u|�	-19359
����:	-19360
C=	-19361
}O	-19362
�w	-19363
�	-19364
#�	-19365
�L	-19366
�^	-19367
t�	-19368
�8	-19369
�	-19370
�/	-19371
r�	-19372
^�	-19373
g�	-19374
3�	-19375
U�	-19376
a�	-19377
-�	-19378
h�	-19379
�s	-19380
�f	-19381
>�	-19382
!*�	-19383
!>�	-19384
!v�	-19385
"O�	-19386
#g�	-19387
$3�	-19388
$:�	-19389
$l�	-19390
$r�	-19391
$�m	-19392
%�q	-19393
&�z	-19394
'�y	-19395
.6�	-19396
1�	-19397
1B�	-19398
1W�	-19399
5�Z	-19400
8�m	-19401
9;�	-19402
<�4	-19403
@�v	-19404
@�y	-19405
A.�	-19406
A:�	-19407
B�	-19408
C�	-19409
D(�	-19410
E�w	-19411
R�z	-19412
T�+	-19413
T�v	-19414
Uk�	-19415
Zx�	-19416
[_�	-19417
h&�	-19418
it�	-19419
l�	-19420
lg�	-19421
uf�	-19422
|�	-19423
?@	-19424
SF	-19425
x	-19426
}@	-19427
r�	-19428
�z	-19429
�<	-19430
m�	-19431
�^	-19432
�	-19433
z�	-19434
�y	-19435
�	-19436
�4	-19437
�]	-19438
�w	-19439
�x	-19440
C�	-19441
�:	-19442
#�	-19443
�~	-19444
}�	-19445
X�	-19446
]�	-19447
j�	-19448
�K	-19449
Q�	-19450
�	-19451
C�	-19452
]�	-19453
�r	-19454
�	-19455
�;	-19456
y�	-19457
!y�	-19458
"�	-19459
"D�	-19460
"�k	-19461
$�	-19462
$�s	-19463
'O�	-19464
'�w	-19465
*�o	-19466
/�?	-19467
/�	-19468
3J�	-19469
5�/	-19470
5�?	-19471
7k�	-19472
9�;	-19473
?�r	-19474
A�	-19475
A�v	-19476
B4�	-19477
B\�	-19478
Bf�	-19479
CQ�	-19480
D�	-19481
D�^	-19482
K�I	-19483
L�o	-19484
MA�	-19485
N&�	-19486
R�~	-19487
St�	-19488
Sx�	-19489
Y�]	-19490
Y�s	-19491
Z�:	-19492
Z�w	-19493
[�4	-19494
b�/	-19495
b�J	-19496
dn�	-19497
d�s	-19498
e�z	-19499
lw�	-19500
n�]	-19501
p�/	-19502
p�J	-19503
u�`	-19504
{�/	-19505
~�`	-19506
▁�'	-19507
▁�J	-19508
▁�K	-19509
	-19510
l�	-19511
�J	-19512
U�	-19513
o�	-19514
V�	-19515
�	-19516
�	-19517
�	-19518
B�	-19519
X�	-19520
�4	-19521
�	-19522
�	-19523
0�	-19524
#�	-19525
l�	-19526
M�	-19527
]�	-19528
�:	-19529
�{	-19530
+�	-19531
>�	-19532
m�	-19533
j�	-19534
�z	-19535
�H	-19536
�J	-19537
�v	-19538
O�	-19539
�m	-19540
�	-19541
|�	-19542
�	-19543
!h�	-19544
!�`	-19545
"�	-19546
"�	-19547
"a�	-19548
$=�	-19549
$x�	-19550
%^�	-19551
)B�	-19552
*4�	-19553
,�s	-19554
-q�	-19555
-�4	-19556
1;�	-19557
1z�	-19558
5�s	-19559
6�	-19560
6e�	-19561
7�	-19562
8:�	-19563
9C�	-19564
9^�	-19565
=k�	-19566
=x�	-19567
?�k	-19568
Av�	-19569
D`�	-19570
Ei�	-19571
E�,	-19572
H'�	-19573
H�`	-19574
N�	-19575
S�:	-19576
Tn�	-19577
T�]	-19578
Y�	-19579
Zm�	-19580
[-�	-19581
a�m	-19582
f�s	-19583
i%�	-19584
ig�	-19585
is�	-19586
ld�	-19587
lk�	-19588
q�;	-19589
s�;	-19590
u�r	-19591
|�+	-19592
▁�P	-19593
?2	-19594
O	-19595
a�	-19596
[...]
